{
  "version": "1.0",
  "truncation": null,
  "padding": null,
  "added_tokens": [
    {
      "id": 0,
      "content": "[PAD]",
      "single_word": false,
      "lstrip": false,
      "rstrip": false,
      "normalized": false,
      "special": true
    },
    {
      "id": 1,
      "content": "[UNK]",
      "single_word": false,
      "lstrip": false,
      "rstrip": false,
      "normalized": false,
      "special": true
    },
    {
      "id": 2,
      "content": "[CLS]",
      "single_word": false,
      "lstrip": false,
      "rstrip": false,
      "normalized": false,
      "special": true
    },
    {
      "id": 3,
      "content": "[SEP]",
      "single_word": false,
      "lstrip": false,
      "rstrip": false,
      "normalized": false,
      "special": true
    },
    {
      "id": 4,
      "content": "[MASK]",
      "single_word": false,
      "lstrip": false,
      "rstrip": false,
      "normalized": false,
      "special": true
    }
  ],
  "normalizer": {
    "type": "Sequence",
    "normalizers": [
      {
        "type": "NFC"
      },
      {
        "type": "BertNormalizer",
        "clean_text": true,
        "handle_chinese_chars": true,
        "strip_accents": false,
        "lowercase": false
      }
    ]
  },
  "pre_tokenizer": {
    "type": "BertPreTokenizer"
  },
  "post_processor": {
    "type": "TemplateProcessing",
    "single": [
      {
        "SpecialToken": {
          "id": "[CLS]",
          "type_id": 0
        }
      },
      {
        "Sequence": {
          "id": "A",
          "type_id": 0
        }
      },
      {
        "SpecialToken": {
          "id": "[SEP]",
          "type_id": 0
        }
      }
    ],
    "pair": [
      {
        "SpecialToken": {
          "id": "[CLS]",
          "type_id": 0
        }
      },
      {
        "Sequence": {
          "id": "A",
          "type_id": 0
        }
      },
      {
        "SpecialToken": {
          "id": "[SEP]",
          "type_id": 0
        }
      },
      {
        "Sequence": {
          "id": "B",
          "type_id": 1
        }
      },
      {
        "SpecialToken": {
          "id": "[SEP]",
          "type_id": 1
        }
      }
    ],
    "special_tokens": {
      "[CLS]": {
        "id": "[CLS]",
        "ids": [
          2
        ],
        "tokens": [
          "[CLS]"
        ]
      },
      "[SEP]": {
        "id": "[SEP]",
        "ids": [
          3
        ],
        "tokens": [
          "[SEP]"
        ]
      }
    }
  },
  "decoder": null,
  "model": {
    "type": "WordPiece",
    "unk_token": "[UNK]",
    "continuing_subword_prefix": "##",
    "max_input_chars_per_word": 100,
    "vocab": {
      "[PAD]": 0,
      "[UNK]": 1,
      "[CLS]": 2,
      "[SEP]": 3,
      "[MASK]": 4,
      "!": 5,
      "\"": 6,
      "#": 7,
      "$": 8,
      "%": 9,
      "&": 10,
      "'": 11,
      "(": 12,
      ")": 13,
      "*": 14,
      "+": 15,
      ",": 16,
      "-": 17,
      ".": 18,
      "/": 19,
      "0": 20,
      "1": 21,
      "2": 22,
      "3": 23,
      "4": 24,
      "5": 25,
      "6": 26,
      "7": 27,
      "8": 28,
      "9": 29,
      ":": 30,
      ";": 31,
      "<": 32,
      "=": 33,
      ">": 34,
      "?": 35,
      "@": 36,
      "A": 37,
      "B": 38,
      "C": 39,
      "D": 40,
      "E": 41,
      "F": 42,
      "G": 43,
      "H": 44,
      "I": 45,
      "J": 46,
      "K": 47,
      "L": 48,
      "M": 49,
      "N": 50,
      "O": 51,
      "P": 52,
      "Q": 53,
      "R": 54,
      "S": 55,
      "T": 56,
      "U": 57,
      "V": 58,
      "W": 59,
      "X": 60,
      "Y": 61,
      "Z": 62,
      "[": 63,
      "\\": 64,
      "]": 65,
      "^": 66,
      "_": 67,
      "`": 68,
      "a": 69,
      "b": 70,
      "c": 71,
      "d": 72,
      "e": 73,
      "f": 74,
      "g": 75,
      "h": 76,
      "i": 77,
      "j": 78,
      "k": 79,
      "l": 80,
      "m": 81,
      "n": 82,
      "o": 83,
      "p": 84,
      "q": 85,
      "r": 86,
      "s": 87,
      "t": 88,
      "u": 89,
      "v": 90,
      "w": 91,
      "x": 92,
      "y": 93,
      "z": 94,
      "|": 95,
      "}": 96,
      "~": 97,
      "¡": 98,
      "¢": 99,
      "£": 100,
      "¤": 101,
      "¥": 102,
      "«": 103,
      "¬": 104,
      "®": 105,
      "°": 106,
      "±": 107,
      "²": 108,
      "³": 109,
      "´": 110,
      "µ": 111,
      "·": 112,
      "¹": 113,
      "º": 114,
      "»": 115,
      "½": 116,
      "À": 117,
      "Ä": 118,
      "Å": 119,
      "Ç": 120,
      "É": 121,
      "Ê": 122,
      "Í": 123,
      "Ó": 124,
      "Ö": 125,
      "×": 126,
      "Ü": 127,
      "ß": 128,
      "à": 129,
      "á": 130,
      "â": 131,
      "ã": 132,
      "ä": 133,
      "å": 134,
      "æ": 135,
      "ç": 136,
      "è": 137,
      "é": 138,
      "ê": 139,
      "ë": 140,
      "ì": 141,
      "í": 142,
      "î": 143,
      "ï": 144,
      "ð": 145,
      "ñ": 146,
      "ò": 147,
      "ó": 148,
      "ô": 149,
      "õ": 150,
      "ö": 151,
      "÷": 152,
      "ù": 153,
      "ú": 154,
      "û": 155,
      "ü": 156,
      "ý": 157,
      "ÿ": 158,
      "ā": 159,
      "ă": 160,
      "ą": 161,
      "ć": 162,
      "ĉ": 163,
      "Č": 164,
      "č": 165,
      "ď": 166,
      "Đ": 167,
      "đ": 168,
      "ē": 169,
      "ĕ": 170,
      "ė": 171,
      "ę": 172,
      "ě": 173,
      "ĝ": 174,
      "ğ": 175,
      "ġ": 176,
      "ĥ": 177,
      "Ī": 178,
      "ī": 179,
      "İ": 180,
      "ı": 181,
      "ĵ": 182,
      "ķ": 183,
      "ł": 184,
      "ń": 185,
      "ņ": 186,
      "ň": 187,
      "Ŋ": 188,
      "ŋ": 189,
      "ō": 190,
      "œ": 191,
      "ř": 192,
      "Ś": 193,
      "ś": 194,
      "ŝ": 195,
      "Ş": 196,
      "ş": 197,
      "Š": 198,
      "š": 199,
      "ť": 200,
      "ū": 201,
      "ŭ": 202,
      "ů": 203,
      "ź": 204,
      "ż": 205,
      "ž": 206,
      "Ə": 207,
      "Ɵ": 208,
      "Ƶ": 209,
      "ƶ": 210,
      "ǎ": 211,
      "ǐ": 212,
      "ǒ": 213,
      "ǔ": 214,
      "ǯ": 215,
      "ȳ": 216,
      "ɉ": 217,
      "ɑ": 218,
      "ɔ": 219,
      "ə": 220,
      "ɜ": 221,
      "ɡ": 222,
      "ɪ": 223,
      "ɫ": 224,
      "ɯ": 225,
      "ɲ": 226,
      "ɵ": 227,
      "ɾ": 228,
      "ʁ": 229,
      "ʊ": 230,
      "ʎ": 231,
      "ʏ": 232,
      "ʒ": 233,
      "ʰ": 234,
      "ʼ": 235,
      "ʾ": 236,
      "ʿ": 237,
      "ˈ": 238,
      "ː": 239,
      "˚": 240,
      "˝": 241,
      "́": 242,
      "͡": 243,
      "Α": 244,
      "Β": 245,
      "Γ": 246,
      "Δ": 247,
      "Ε": 248,
      "Θ": 249,
      "Ι": 250,
      "Κ": 251,
      "Λ": 252,
      "Ο": 253,
      "Π": 254,
      "Σ": 255,
      "Υ": 256,
      "ά": 257,
      "έ": 258,
      "ή": 259,
      "ί": 260,
      "α": 261,
      "β": 262,
      "γ": 263,
      "δ": 264,
      "ε": 265,
      "ζ": 266,
      "η": 267,
      "θ": 268,
      "ι": 269,
      "κ": 270,
      "λ": 271,
      "μ": 272,
      "ν": 273,
      "ξ": 274,
      "ο": 275,
      "π": 276,
      "ρ": 277,
      "ς": 278,
      "σ": 279,
      "τ": 280,
      "υ": 281,
      "φ": 282,
      "χ": 283,
      "ψ": 284,
      "ω": 285,
      "ϊ": 286,
      "ό": 287,
      "ύ": 288,
      "ώ": 289,
      "Ё": 290,
      "Є": 291,
      "Ѕ": 292,
      "І": 293,
      "Ј": 294,
      "Ћ": 295,
      "Ў": 296,
      "А": 297,
      "Б": 298,
      "В": 299,
      "Г": 300,
      "Д": 301,
      "Е": 302,
      "Ж": 303,
      "З": 304,
      "И": 305,
      "Й": 306,
      "К": 307,
      "Л": 308,
      "М": 309,
      "Н": 310,
      "О": 311,
      "П": 312,
      "Р": 313,
      "С": 314,
      "Т": 315,
      "У": 316,
      "Ф": 317,
      "Х": 318,
      "Ц": 319,
      "Ч": 320,
      "Ш": 321,
      "Щ": 322,
      "Ъ": 323,
      "Ы": 324,
      "Ь": 325,
      "Э": 326,
      "Ю": 327,
      "Я": 328,
      "а": 329,
      "б": 330,
      "в": 331,
      "г": 332,
      "д": 333,
      "е": 334,
      "ж": 335,
      "з": 336,
      "и": 337,
      "й": 338,
      "к": 339,
      "л": 340,
      "м": 341,
      "н": 342,
      "о": 343,
      "п": 344,
      "р": 345,
      "с": 346,
      "т": 347,
      "у": 348,
      "ф": 349,
      "х": 350,
      "ц": 351,
      "ч": 352,
      "ш": 353,
      "щ": 354,
      "ъ": 355,
      "ы": 356,
      "ь": 357,
      "э": 358,
      "ю": 359,
      "я": 360,
      "ё": 361,
      "ђ": 362,
      "є": 363,
      "і": 364,
      "ї": 365,
      "ј": 366,
      "ћ": 367,
      "ќ": 368,
      "ў": 369,
      "ѣ": 370,
      "ѧ": 371,
      "Ѳ": 372,
      "ѳ": 373,
      "Ҋ": 374,
      "ҋ": 375,
      "Ґ": 376,
      "ґ": 377,
      "Ғ": 378,
      "ғ": 379,
      "Ҕ": 380,
      "ҕ": 381,
      "Ҙ": 382,
      "ҙ": 383,
      "Қ": 384,
      "қ": 385,
      "Ҡ": 386,
      "ҡ": 387,
      "Ң": 388,
      "ң": 389,
      "Ҥ": 390,
      "ҥ": 391,
      "Ҫ": 392,
      "ҫ": 393,
      "Ү": 394,
      "ү": 395,
      "Ұ": 396,
      "ҳ": 397,
      "Ҵ": 398,
      "ҵ": 399,
      "Ҷ": 400,
      "ҷ": 401,
      "ҹ": 402,
      "Һ": 403,
      "һ": 404,
      "ӄ": 405,
      "Ӈ": 406,
      "ӈ": 407,
      "ӊ": 408,
      "ӌ": 409,
      "ӏ": 410,
      "Ә": 411,
      "ә": 412,
      "ӣ": 413,
      "ӧ": 414,
      "Ө": 415,
      "ө": 416,
      "ԓ": 417,
      "Ա": 418,
      "Բ": 419,
      "Գ": 420,
      "Թ": 421,
      "Կ": 422,
      "Հ": 423,
      "Շ": 424,
      "Ս": 425,
      "Վ": 426,
      "ա": 427,
      "գ": 428,
      "դ": 429,
      "ե": 430,
      "թ": 431,
      "ժ": 432,
      "ի": 433,
      "լ": 434,
      "կ": 435,
      "հ": 436,
      "ղ": 437,
      "մ": 438,
      "յ": 439,
      "ն": 440,
      "շ": 441,
      "ո": 442,
      "պ": 443,
      "ռ": 444,
      "ս": 445,
      "վ": 446,
      "տ": 447,
      "ր": 448,
      "ց": 449,
      "ְ": 450,
      "ֲ": 451,
      "ִ": 452,
      "ֵ": 453,
      "ַ": 454,
      "ָ": 455,
      "ּ": 456,
      "א": 457,
      "ב": 458,
      "ג": 459,
      "ד": 460,
      "ה": 461,
      "ו": 462,
      "ט": 463,
      "י": 464,
      "כ": 465,
      "ל": 466,
      "ם": 467,
      "מ": 468,
      "ן": 469,
      "נ": 470,
      "ס": 471,
      "ע": 472,
      "פ": 473,
      "צ": 474,
      "ק": 475,
      "ר": 476,
      "ש": 477,
      "ת": 478,
      "ء": 479,
      "آ": 480,
      "أ": 481,
      "إ": 482,
      "ئ": 483,
      "ا": 484,
      "ب": 485,
      "ة": 486,
      "ت": 487,
      "ث": 488,
      "ج": 489,
      "ح": 490,
      "خ": 491,
      "د": 492,
      "ذ": 493,
      "ر": 494,
      "ز": 495,
      "س": 496,
      "ش": 497,
      "ص": 498,
      "ض": 499,
      "ط": 500,
      "ظ": 501,
      "ع": 502,
      "غ": 503,
      "ف": 504,
      "ق": 505,
      "ك": 506,
      "ل": 507,
      "م": 508,
      "ن": 509,
      "ه": 510,
      "و": 511,
      "ى": 512,
      "ي": 513,
      "َ": 514,
      "ِ": 515,
      "ّ": 516,
      "ْ": 517,
      "پ": 518,
      "چ": 519,
      "ژ": 520,
      "ڠ": 521,
      "ک": 522,
      "ڭ": 523,
      "گ": 524,
      "ہ": 525,
      "ۇ": 526,
      "ۈ": 527,
      "ی": 528,
      "ێ": 529,
      "ې": 530,
      "ە": 531,
      "ं": 532,
      "ः": 533,
      "अ": 534,
      "आ": 535,
      "ई": 536,
      "उ": 537,
      "क": 538,
      "ग": 539,
      "च": 540,
      "ज": 541,
      "ण": 542,
      "त": 543,
      "द": 544,
      "ध": 545,
      "न": 546,
      "प": 547,
      "फ": 548,
      "ब": 549,
      "भ": 550,
      "म": 551,
      "य": 552,
      "र": 553,
      "ल": 554,
      "व": 555,
      "श": 556,
      "स": 557,
      "ह": 558,
      "ा": 559,
      "ि": 560,
      "ी": 561,
      "ु": 562,
      "े": 563,
      "ै": 564,
      "ो": 565,
      "्": 566,
      "ং": 567,
      "ই": 568,
      "উ": 569,
      "ক": 570,
      "গ": 571,
      "ঠ": 572,
      "ণ": 573,
      "ত": 574,
      "থ": 575,
      "দ": 576,
      "ন": 577,
      "ব": 578,
      "ম": 579,
      "র": 580,
      "ল": 581,
      "স": 582,
      "হ": 583,
      "া": 584,
      "ী": 585,
      "ু": 586,
      "্": 587,
      "ਂ": 588,
      "ਦ": 589,
      "ਨ": 590,
      "ਲ": 591,
      "ਵ": 592,
      "ਿ": 593,
      "ੀ": 594,
      "ੱ": 595,
      "ં": 596,
      "ક": 597,
      "ગ": 598,
      "ચ": 599,
      "દ": 600,
      "ધ": 601,
      "ન": 602,
      "મ": 603,
      "ર": 604,
      "સ": 605,
      "હ": 606,
      "ા": 607,
      "ી": 608,
      "ો": 609,
      "க": 610,
      "ங": 611,
      "ச": 612,
      "ப": 613,
      "ர": 614,
      "ி": 615,
      "ூ": 616,
      "்": 617,
      "ก": 618,
      "ค": 619,
      "ง": 620,
      "จ": 621,
      "ช": 622,
      "ญ": 623,
      "ณ": 624,
      "ต": 625,
      "ถ": 626,
      "ท": 627,
      "น": 628,
      "บ": 629,
      "ภ": 630,
      "ย": 631,
      "ร": 632,
      "ล": 633,
      "ห": 634,
      "อ": 635,
      "ั": 636,
      "า": 637,
      "ิ": 638,
      "ื": 639,
      "ู": 640,
      "เ": 641,
      "โ": 642,
      "ใ": 643,
      "ไ": 644,
      "็": 645,
      "่": 646,
      "ຊ": 647,
      "ດ": 648,
      "ຕ": 649,
      "ທ": 650,
      "ນ": 651,
      "ປ": 652,
      "ລ": 653,
      "ວ": 654,
      "ສ": 655,
      "ະ": 656,
      "ັ": 657,
      "າ": 658,
      "ິ": 659,
      "ົ": 660,
      "ເ": 661,
      "ໄ": 662,
      "་": 663,
      "ཀ": 664,
      "ཁ": 665,
      "ག": 666,
      "ཆ": 667,
      "ད": 668,
      "ན": 669,
      "བ": 670,
      "འ": 671,
      "ར": 672,
      "ལ": 673,
      "ཤ": 674,
      "ས": 675,
      "ི": 676,
      "ོ": 677,
      "ྡ": 678,
      "ྲ": 679,
      "ა": 680,
      "ბ": 681,
      "გ": 682,
      "ე": 683,
      "ვ": 684,
      "ზ": 685,
      "ი": 686,
      "კ": 687,
      "ლ": 688,
      "მ": 689,
      "ნ": 690,
      "ო": 691,
      "რ": 692,
      "ს": 693,
      "ტ": 694,
      "უ": 695,
      "ღ": 696,
      "შ": 697,
      "ძ": 698,
      "ჯ": 699,
      "ት": 700,
      "ኢ": 701,
      "ያ": 702,
      "ዮ": 703,
      "ጵ": 704,
      "ᐃ": 705,
      "ᑦ": 706,
      "ᓄ": 707,
      "᠂": 708,
      "᠃": 709,
      "᠌": 710,
      "ᠠ": 711,
      "ᠡ": 712,
      "ᠢ": 713,
      "ᠣ": 714,
      "ᠤ": 715,
      "ᠦ": 716,
      "ᠨ": 717,
      "ᠩ": 718,
      "ᠪ": 719,
      "ᠫ": 720,
      "ᠬ": 721,
      "ᠭ": 722,
      "ᠮ": 723,
      "ᠯ": 724,
      "ᠲ": 725,
      "ᠳ": 726,
      "ᠴ": 727,
      "ᠶ": 728,
      "ᠷ": 729,
      "ᠸ": 730,
      "ᠺ": 731,
      "Ḥ": 732,
      "ḥ": 733,
      "ṇ": 734,
      "ṗ": 735,
      "ṣ": 736,
      "ṭ": 737,
      "ả": 738,
      "ẹ": 739,
      "ẻ": 740,
      "ỉ": 741,
      "ị": 742,
      "ọ": 743,
      "ỏ": 744,
      "ụ": 745,
      "ủ": 746,
      "Ỵ": 747,
      "ἀ": 748,
      "ἄ": 749,
      "Ἀ": 750,
      "ἐ": 751,
      "ἠ": 752,
      "ἰ": 753,
      "ἶ": 754,
      "ὀ": 755,
      "ὄ": 756,
      "ὅ": 757,
      "Ὅ": 758,
      "ὐ": 759,
      "ὑ": 760,
      "ᾰ": 761,
      "ῆ": 762,
      "ῖ": 763,
      "ῡ": 764,
      "ῶ": 765,
      "‑": 766,
      "–": 767,
      "—": 768,
      "‖": 769,
      "‘": 770,
      "’": 771,
      "“": 772,
      "”": 773,
      "„": 774,
      "†": 775,
      "•": 776,
      "…": 777,
      "‰": 778,
      "′": 779,
      "″": 780,
      "⁄": 781,
      "₁": 782,
      "₂": 783,
      "₣": 784,
      "₤": 785,
      "₨": 786,
      "₫": 787,
      "€": 788,
      "₮": 789,
      "₰": 790,
      "⃣": 791,
      "№": 792,
      "⅛": 793,
      "↑": 794,
      "→": 795,
      "−": 796,
      "≈": 797,
      "█": 798,
      "☎": 799,
      "♈": 800,
      "♉": 801,
      "♊": 802,
      "♋": 803,
      "♌": 804,
      "♍": 805,
      "♎": 806,
      "♏": 807,
      "♐": 808,
      "♑": 809,
      "♒": 810,
      "♓": 811,
      "⚓": 812,
      "⛲": 813,
      "⛵": 814,
      "✈": 815,
      "➡": 816,
      "⬅": 817,
      "⬆": 818,
      "⬇": 819,
      "。": 820,
      "《": 821,
      "》": 822,
      "「": 823,
      "」": 824,
      "〖": 825,
      "〗": 826,
      "か": 827,
      "が": 828,
      "さ": 829,
      "し": 830,
      "す": 831,
      "で": 832,
      "と": 833,
      "な": 834,
      "の": 835,
      "は": 836,
      "ひ": 837,
      "び": 838,
      "み": 839,
      "む": 840,
      "ら": 841,
      "り": 842,
      "ん": 843,
      "ア": 844,
      "イ": 845,
      "ウ": 846,
      "オ": 847,
      "カ": 848,
      "ガ": 849,
      "キ": 850,
      "ク": 851,
      "サ": 852,
      "シ": 853,
      "ジ": 854,
      "ス": 855,
      "ズ": 856,
      "セ": 857,
      "ソ": 858,
      "タ": 859,
      "ダ": 860,
      "チ": 861,
      "ツ": 862,
      "テ": 863,
      "ト": 864,
      "ド": 865,
      "ナ": 866,
      "ニ": 867,
      "ハ": 868,
      "ピ": 869,
      "プ": 870,
      "マ": 871,
      "ム": 872,
      "モ": 873,
      "ャ": 874,
      "ヤ": 875,
      "ュ": 876,
      "ョ": 877,
      "ヨ": 878,
      "ル": 879,
      "レ": 880,
      "ワ": 881,
      "ン": 882,
      "ー": 883,
      "ㄱ": 884,
      "ㄴ": 885,
      "ㄷ": 886,
      "ㄹ": 887,
      "ㅁ": 888,
      "ㅂ": 889,
      "ㅅ": 890,
      "ㅇ": 891,
      "ㅈ": 892,
      "ㅊ": 893,
      "ㅋ": 894,
      "ㅌ": 895,
      "ㅍ": 896,
      "ㅎ": 897,
      "一": 898,
      "万": 899,
      "三": 900,
      "上": 901,
      "下": 902,
      "不": 903,
      "世": 904,
      "东": 905,
      "严": 906,
      "中": 907,
      "为": 908,
      "主": 909,
      "义": 910,
      "之": 911,
      "乌": 912,
      "乐": 913,
      "争": 914,
      "交": 915,
      "产": 916,
      "京": 917,
      "人": 918,
      "仁": 919,
      "介": 920,
      "从": 921,
      "仏": 922,
      "仙": 923,
      "代": 924,
      "以": 925,
      "任": 926,
      "众": 927,
      "会": 928,
      "伝": 929,
      "佐": 930,
      "你": 931,
      "侘": 932,
      "侨": 933,
      "信": 934,
      "健": 935,
      "儒": 936,
      "儿": 937,
      "先": 938,
      "光": 939,
      "公": 940,
      "六": 941,
      "共": 942,
      "兵": 943,
      "其": 944,
      "内": 945,
      "军": 946,
      "冠": 947,
      "冶": 948,
      "分": 949,
      "列": 950,
      "利": 951,
      "券": 952,
      "前": 953,
      "功": 954,
      "加": 955,
      "动": 956,
      "努": 957,
      "勇": 958,
      "勒": 959,
      "動": 960,
      "勧": 961,
      "化": 962,
      "北": 963,
      "十": 964,
      "千": 965,
      "华": 966,
      "卑": 967,
      "博": 968,
      "卫": 969,
      "友": 970,
      "口": 971,
      "古": 972,
      "台": 973,
      "史": 974,
      "右": 975,
      "司": 976,
      "合": 977,
      "吉": 978,
      "同": 979,
      "名": 980,
      "君": 981,
      "吾": 982,
      "命": 983,
      "和": 984,
      "哀": 985,
      "哈": 986,
      "善": 987,
      "器": 988,
      "四": 989,
      "回": 990,
      "国": 991,
      "图": 992,
      "國": 993,
      "園": 994,
      "圓": 995,
      "圣": 996,
      "在": 997,
      "块": 998,
      "坡": 999,
      "埃": 1000,
      "基": 1001,
      "堂": 1002,
      "士": 1003,
      "壮": 1004,
      "壯": 1005,
      "夏": 1006,
      "外": 1007,
      "夜": 1008,
      "大": 1009,
      "天": 1010,
      "太": 1011,
      "夫": 1012,
      "央": 1013,
      "好": 1014,
      "如": 1015,
      "妈": 1016,
      "威": 1017,
      "子": 1018,
      "字": 1019,
      "学": 1020,
      "孰": 1021,
      "學": 1022,
      "宁": 1023,
      "守": 1024,
      "安": 1025,
      "实": 1026,
      "宮": 1027,
      "家": 1028,
      "寂": 1029,
      "富": 1030,
      "寧": 1031,
      "寺": 1032,
      "小": 1033,
      "少": 1034,
      "尔": 1035,
      "尾": 1036,
      "屋": 1037,
      "山": 1038,
      "岡": 1039,
      "峡": 1040,
      "島": 1041,
      "嶽": 1042,
      "巍": 1043,
      "川": 1044,
      "州": 1045,
      "工": 1046,
      "左": 1047,
      "市": 1048,
      "平": 1049,
      "広": 1050,
      "庄": 1051,
      "康": 1052,
      "式": 1053,
      "張": 1054,
      "强": 1055,
      "归": 1056,
      "影": 1057,
      "微": 1058,
      "德": 1059,
      "徽": 1060,
      "心": 1061,
      "忠": 1062,
      "念": 1063,
      "思": 1064,
      "息": 1065,
      "悃": 1066,
      "愛": 1067,
      "慶": 1068,
      "成": 1069,
      "我": 1070,
      "户": 1071,
      "戸": 1072,
      "房": 1073,
      "所": 1074,
      "技": 1075,
      "招": 1076,
      "拼": 1077,
      "探": 1078,
      "故": 1079,
      "教": 1080,
      "数": 1081,
      "文": 1082,
      "斎": 1083,
      "新": 1084,
      "方": 1085,
      "族": 1086,
      "无": 1087,
      "日": 1088,
      "旧": 1089,
      "明": 1090,
      "易": 1091,
      "春": 1092,
      "是": 1093,
      "時": 1094,
      "普": 1095,
      "景": 1096,
      "曲": 1097,
      "有": 1098,
      "朋": 1099,
      "服": 1100,
      "朝": 1101,
      "木": 1102,
      "未": 1103,
      "本": 1104,
      "术": 1105,
      "李": 1106,
      "杜": 1107,
      "来": 1108,
      "杭": 1109,
      "東": 1110,
      "松": 1111,
      "林": 1112,
      "架": 1113,
      "校": 1114,
      "株": 1115,
      "核": 1116,
      "桌": 1117,
      "業": 1118,
      "樞": 1119,
      "横": 1120,
      "橋": 1121,
      "歌": 1122,
      "正": 1123,
      "武": 1124,
      "殊": 1125,
      "段": 1126,
      "毀": 1127,
      "毁": 1128,
      "毛": 1129,
      "毫": 1130,
      "民": 1131,
      "水": 1132,
      "永": 1133,
      "汉": 1134,
      "江": 1135,
      "沃": 1136,
      "沈": 1137,
      "河": 1138,
      "波": 1139,
      "泱": 1140,
      "浙": 1141,
      "浜": 1142,
      "海": 1143,
      "清": 1144,
      "港": 1145,
      "湖": 1146,
      "湾": 1147,
      "溪": 1148,
      "滅": 1149,
      "滨": 1150,
      "漢": 1151,
      "潮": 1152,
      "濱": 1153,
      "瀋": 1154,
      "瀬": 1155,
      "灭": 1156,
      "為": 1157,
      "無": 1158,
      "然": 1159,
      "燕": 1160,
      "爰": 1161,
      "爾": 1162,
      "物": 1163,
      "特": 1164,
      "珍": 1165,
      "珠": 1166,
      "理": 1167,
      "生": 1168,
      "產": 1169,
      "甫": 1170,
      "由": 1171,
      "电": 1172,
      "界": 1173,
      "白": 1174,
      "省": 1175,
      "県": 1176,
      "矢": 1177,
      "知": 1178,
      "石": 1179,
      "社": 1180,
      "祖": 1181,
      "神": 1182,
      "祭": 1183,
      "禅": 1184,
      "福": 1185,
      "禪": 1186,
      "秀": 1187,
      "私": 1188,
      "秋": 1189,
      "移": 1190,
      "穷": 1191,
      "立": 1192,
      "端": 1193,
      "笃": 1194,
      "第": 1195,
      "等": 1196,
      "系": 1197,
      "紀": 1198,
      "級": 1199,
      "繼": 1200,
      "级": 1201,
      "绍": 1202,
      "绥": 1203,
      "维": 1204,
      "美": 1205,
      "義": 1206,
      "老": 1207,
      "聖": 1208,
      "肥": 1209,
      "肴": 1210,
      "背": 1211,
      "能": 1212,
      "脈": 1213,
      "脉": 1214,
      "膺": 1215,
      "自": 1216,
      "致": 1217,
      "臺": 1218,
      "舍": 1219,
      "舒": 1220,
      "艺": 1221,
      "芥": 1222,
      "芬": 1223,
      "芭": 1224,
      "苍": 1225,
      "茫": 1226,
      "荟": 1227,
      "莘": 1228,
      "華": 1229,
      "萃": 1230,
      "葛": 1231,
      "蓟": 1232,
      "蕉": 1233,
      "藏": 1234,
      "藝": 1235,
      "行": 1236,
      "術": 1237,
      "衛": 1238,
      "西": 1239,
      "视": 1240,
      "言": 1241,
      "話": 1242,
      "語": 1243,
      "論": 1244,
      "謝": 1245,
      "证": 1246,
      "识": 1247,
      "话": 1248,
      "语": 1249,
      "赤": 1250,
      "赫": 1251,
      "路": 1252,
      "跻": 1253,
      "車": 1254,
      "辉": 1255,
      "辽": 1256,
      "迅": 1257,
      "进": 1258,
      "远": 1259,
      "违": 1260,
      "连": 1261,
      "途": 1262,
      "通": 1263,
      "道": 1264,
      "邓": 1265,
      "邺": 1266,
      "都": 1267,
      "鄧": 1268,
      "銀": 1269,
      "銅": 1270,
      "鋼": 1271,
      "錫": 1272,
      "钟": 1273,
      "長": 1274,
      "长": 1275,
      "間": 1276,
      "闕": 1277,
      "问": 1278,
      "闻": 1279,
      "阳": 1280,
      "阶": 1281,
      "限": 1282,
      "陽": 1283,
      "階": 1284,
      "雨": 1285,
      "青": 1286,
      "革": 1287,
      "韓": 1288,
      "音": 1289,
      "须": 1290,
      "风": 1291,
      "飾": 1292,
      "館": 1293,
      "香": 1294,
      "駒": 1295,
      "马": 1296,
      "骂": 1297,
      "高": 1298,
      "魂": 1299,
      "魯": 1300,
      "鮮": 1301,
      "鲁": 1302,
      "麻": 1303,
      "黄": 1304,
      "黑": 1305,
      "齊": 1306,
      "齐": 1307,
      "龍": 1308,
      "龙": 1309,
      "ꙑ": 1310,
      "Ꚉ": 1311,
      "가": 1312,
      "강": 1313,
      "건": 1314,
      "공": 1315,
      "과": 1316,
      "교": 1317,
      "국": 1318,
      "그": 1319,
      "글": 1320,
      "기": 1321,
      "김": 1322,
      "나": 1323,
      "니": 1324,
      "다": 1325,
      "대": 1326,
      "돌": 1327,
      "동": 1328,
      "또": 1329,
      "래": 1330,
      "례": 1331,
      "룹": 1332,
      "리": 1333,
      "말": 1334,
      "문": 1335,
      "민": 1336,
      "방": 1337,
      "병": 1338,
      "본": 1339,
      "부": 1340,
      "사": 1341,
      "산": 1342,
      "삼": 1343,
      "생": 1344,
      "샤": 1345,
      "서": 1346,
      "선": 1347,
      "성": 1348,
      "시": 1349,
      "식": 1350,
      "신": 1351,
      "실": 1352,
      "심": 1353,
      "애": 1354,
      "양": 1355,
      "어": 1356,
      "역": 1357,
      "와": 1358,
      "우": 1359,
      "울": 1360,
      "음": 1361,
      "의": 1362,
      "이": 1363,
      "인": 1364,
      "재": 1365,
      "쟁": 1366,
      "전": 1367,
      "정": 1368,
      "조": 1369,
      "족": 1370,
      "주": 1371,
      "중": 1372,
      "지": 1373,
      "직": 1374,
      "찬": 1375,
      "천": 1376,
      "철": 1377,
      "평": 1378,
      "하": 1379,
      "한": 1380,
      "할": 1381,
      "해": 1382,
      "행": 1383,
      "호": 1384,
      "화": 1385,
      "훈": 1386,
      "희": 1387,
      "ﭘ": 1388,
      "ﯘ": 1389,
      "ﺍ": 1390,
      "ﺎ": 1391,
      "ﺑ": 1392,
      "ﺝ": 1393,
      "ﺩ": 1394,
      "ﺭ": 1395,
      "ﺮ": 1396,
      "ﻓ": 1397,
      "ﻟ": 1398,
      "ﻧ": 1399,
      "ﻮ": 1400,
      "ﻲ": 1401,
      "ﻴ": 1402,
      "！": 1403,
      "（": 1404,
      "，": 1405,
      "：": 1406,
      "￼": 1407,
      "𐆖": 1408,
      "🇧": 1409,
      "🇨": 1410,
      "🇩": 1411,
      "🇪": 1412,
      "🇫": 1413,
      "🇬": 1414,
      "🇮": 1415,
      "🇯": 1416,
      "🇰": 1417,
      "🇳": 1418,
      "🇵": 1419,
      "🇷": 1420,
      "🇸": 1421,
      "🇹": 1422,
      "🇺": 1423,
      "🌃": 1424,
      "🌄": 1425,
      "🌅": 1426,
      "🌉": 1427,
      "🎠": 1428,
      "🎡": 1429,
      "🎢": 1430,
      "🎥": 1431,
      "🐄": 1432,
      "🐋": 1433,
      "🐌": 1434,
      "🐍": 1435,
      "🐏": 1436,
      "🐔": 1437,
      "🐙": 1438,
      "🐚": 1439,
      "🐛": 1440,
      "🐜": 1441,
      "🐝": 1442,
      "🐞": 1443,
      "🐟": 1444,
      "🐠": 1445,
      "🐢": 1446,
      "🐣": 1447,
      "🐤": 1448,
      "🐥": 1449,
      "🐦": 1450,
      "🐬": 1451,
      "🐳": 1452,
      "💺": 1453,
      "💻": 1454,
      "💽": 1455,
      "💾": 1456,
      "💿": 1457,
      "📀": 1458,
      "📞": 1459,
      "📟": 1460,
      "📠": 1461,
      "📡": 1462,
      "📱": 1463,
      "📷": 1464,
      "📹": 1465,
      "📺": 1466,
      "📻": 1467,
      "📼": 1468,
      "🔇": 1469,
      "🔈": 1470,
      "🔉": 1471,
      "🔊": 1472,
      "🔟": 1473,
      "🔠": 1474,
      "🔡": 1475,
      "🔢": 1476,
      "🔣": 1477,
      "🔤": 1478,
      "🗻": 1479,
      "🗽": 1480,
      "🗾": 1481,
      "😂": 1482,
      "😅": 1483,
      "😆": 1484,
      "😋": 1485,
      "😍": 1486,
      "😎": 1487,
      "😓": 1488,
      "😖": 1489,
      "😠": 1490,
      "😡": 1491,
      "😢": 1492,
      "😤": 1493,
      "😥": 1494,
      "😨": 1495,
      "😩": 1496,
      "😪": 1497,
      "😫": 1498,
      "😭": 1499,
      "😰": 1500,
      "😱": 1501,
      "😴": 1502,
      "😷": 1503,
      "🚀": 1504,
      "🚁": 1505,
      "🚂": 1506,
      "🚢": 1507,
      "🚣": 1508,
      "🚤": 1509,
      "##у": 1510,
      "##п": 1511,
      "##д": 1512,
      "##е": 1513,
      "##т": 1514,
      "##а": 1515,
      "##0": 1516,
      "##3": 1517,
      "##о": 1518,
      "##л": 1519,
      "##к": 1520,
      "##р": 1521,
      "##ы": 1522,
      "##н": 1523,
      "##ю": 1524,
      "##ч": 1525,
      "##и": 1526,
      "##с": 1527,
      "##й": 1528,
      "##u": 1529,
      "##b": 1530,
      "##e": 1531,
      "##n": 1532,
      "##s": 1533,
      "##ҥ": 1534,
      "##х": 1535,
      "##э": 1536,
      "##б": 1537,
      "##і": 1538,
      "##±": 1539,
      "##в": 1540,
      "##ь": 1541,
      "##ҕ": 1542,
      "##м": 1543,
      "##h": 1544,
      "##г": 1545,
      "##ш": 1546,
      "##з": 1547,
      "##ц": 1548,
      "##я": 1549,
      "##ү": 1550,
      "##А": 1551,
      "##Ҕ": 1552,
      "##Ы": 1553,
      "##Т": 1554,
      "##һ": 1555,
      "##ө": 1556,
      "##Һ": 1557,
      "##¬": 1558,
      "##ђ": 1559,
      "##ф": 1560,
      "##o": 1561,
      "##r": 1562,
      "##k": 1563,
      "##ё": 1564,
      "##v": 1565,
      "##a": 1566,
      "##5": 1567,
      "##˚": 1568,
      "##С": 1569,
      "##l": 1570,
      "##i": 1571,
      "##m": 1572,
      "##Б": 1573,
      "##Э": 1574,
      "##щ": 1575,
      "##И": 1576,
      "##К": 1577,
      "##ж": 1578,
      "##p": 1579,
      "##y": 1580,
      "##4": 1581,
      "##6": 1582,
      "##О": 1583,
      "##П": 1584,
      "##9": 1585,
      "##و": 1586,
      "##ر": 1587,
      "##ي": 1588,
      "##ت": 1589,
      "##ا": 1590,
      "##ن": 1591,
      "##t": 1592,
      "##1": 1593,
      "##ā": 1594,
      "##á": 1595,
      "##d": 1596,
      "##à": 1597,
      "##́": 1598,
      "##№": 1599,
      "##g": 1600,
      "##7": 1601,
      "##2": 1602,
      "##8": 1603,
      "##ѳ": 1604,
      "##ô": 1605,
      "##q": 1606,
      "##ǐ": 1607,
      "##è": 1608,
      "##ґ": 1609,
      "##µ": 1610,
      "##В": 1611,
      "##З": 1612,
      "##A": 1613,
      "##R": 1614,
      "##I": 1615,
      "##N": 1616,
      "##z": 1617,
      "##f": 1618,
      "##³": 1619,
      "##ب": 1620,
      "##é": 1621,
      "##c": 1622,
      "##Л": 1623,
      "##Г": 1624,
      "##У": 1625,
      "##Р": 1626,
      "##І": 1627,
      "##ң": 1628,
      "##М": 1629,
      "##ɵ": 1630,
      "##ʏ": 1631,
      "##Ö": 1632,
      "##Y": 1633,
      "##T": 1634,
      "##j": 1635,
      "##ü": 1636,
      "##ç": 1637,
      "##P": 1638,
      "##O": 1639,
      "##w": 1640,
      "##ī": 1641,
      "##ъ": 1642,
      "##선": 1643,
      "##말": 1644,
      "##ո": 1645,
      "##վ": 1646,
      "##կ": 1647,
      "##ա": 1648,
      "##ս": 1649,
      "##յ": 1650,
      "##ն": 1651,
      "##հ": 1652,
      "##ķ": 1653,
      "##Ө": 1654,
      "##Ү": 1655,
      "##æ": 1656,
      "##E": 1657,
      "##γ": 1658,
      "##Е": 1659,
      "##Н": 1660,
      "##×": 1661,
      "##°": 1662,
      "##´": 1663,
      "##H": 1664,
      "##ા": 1665,
      "##ં": 1666,
      "##ધ": 1667,
      "##ી": 1668,
      "##²": 1669,
      "##Й": 1670,
      "##ҙ": 1671,
      "##ѣ": 1672,
      "##š": 1673,
      "##Д": 1674,
      "##U": 1675,
      "##S": 1676,
      "##국": 1677,
      "##가": 1678,
      "##ρ": 1679,
      "##ι": 1680,
      "##σ": 1681,
      "##τ": 1682,
      "##ο": 1683,
      "##έ": 1684,
      "##λ": 1685,
      "##η": 1686,
      "##ς": 1687,
      "##ʼ": 1688,
      "##J": 1689,
      "##D": 1690,
      "##F": 1691,
      "##민": 1692,
      "##정": 1693,
      "##음": 1694,
      "##x": 1695,
      "##K": 1696,
      "##ǎ": 1697,
      "##B": 1698,
      "##ǔ": 1699,
      "##ö": 1700,
      "##🇧": 1701,
      "##त": 1702,
      "##्": 1703,
      "##र": 1704,
      "##Ь": 1705,
      "##M": 1706,
      "##V": 1707,
      "##X": 1708,
      "##ã": 1709,
      "##ì": 1710,
      "##ū": 1711,
      "##ғ": 1712,
      "##ﻴ": 1713,
      "##ﺮ": 1714,
      "##ﺍ": 1715,
      "##ﺝ": 1716,
      "##ә": 1717,
      "##C": 1718,
      "##Х": 1719,
      "##█": 1720,
      "##ί": 1721,
      "##W": 1722,
      "##ō": 1723,
      "##대": 1724,
      "##ı": 1725,
      "##Ю": 1726,
      "##α": 1727,
      "##د": 1728,
      "##ی": 1729,
      "##ش": 1730,
      "##Ҥ": 1731,
      "##É": 1732,
      "##🇪": 1733,
      "##ア": 1734,
      "##イ": 1735,
      "##セ": 1736,
      "##ン": 1737,
      "##で": 1738,
      "##す": 1739,
      "##Я": 1740,
      "##Ч": 1741,
      "##족": 1742,
      "##ӊ": 1743,
      "##य": 1744,
      "##ा": 1745,
      "##न": 1746,
      "##י": 1747,
      "##ב": 1748,
      "##カ": 1749,
      "##チ": 1750,
      "##ュ": 1751,
      "##ウ": 1752,
      "##ï": 1753,
      "##Ф": 1754,
      "##ӏ": 1755,
      "##ҵ": 1756,
      "##μ": 1757,
      "##κ": 1758,
      "##ص": 1759,
      "##ح": 1760,
      "##ء": 1761,
      "##어": 1762,
      "##ј": 1763,
      "##î": 1764,
      "##ु": 1765,
      "##ं": 1766,
      "##ब": 1767,
      "##ई": 1768,
      "##ë": 1769,
      "##Q": 1770,
      "##L": 1771,
      "##ა": 1772,
      "##ნ": 1773,
      "##ჯ": 1774,
      "##გ": 1775,
      "##ლ": 1776,
      "##ძ": 1777,
      "##ე": 1778,
      "##ξ": 1779,
      "##ş": 1780,
      "##ä": 1781,
      "##ҫ": 1782,
      "##Ш": 1783,
      "##ß": 1784,
      "##ۇ": 1785,
      "##ز": 1786,
      "##ې": 1787,
      "##ك": 1788,
      "##ҡ": 1789,
      "##ǒ": 1790,
      "##ύ": 1791,
      "##δ": 1792,
      "##م": 1793,
      "##ێ": 1794,
      "##í": 1795,
      "##ν": 1796,
      "##ή": 1797,
      "##ў": 1798,
      "##G": 1799,
      "##ћ": 1800,
      "##ו": 1801,
      "##ט": 1802,
      "##א": 1803,
      "##ָ": 1804,
      "##נ": 1805,
      "##מ": 1806,
      "##ע": 1807,
      "##ล": 1808,
      "##า": 1809,
      "##ง": 1810,
      "##ַ": 1811,
      "##ת": 1812,
      "##ִ": 1813,
      "##ּ": 1814,
      "##ק": 1815,
      "##ְ": 1816,
      "##ה": 1817,
      "##ʰ": 1818,
      "##ː": 1819,
      "##÷": 1820,
      "##ò": 1821,
      "##ó": 1822,
      "##ð": 1823,
      "##Ц": 1824,
      "##ズ": 1825,
      "##キ": 1826,
      "##˝": 1827,
      "##ÿ": 1828,
      "##ɔ": 1829,
      "##ɲ": 1830,
      "##ṣ": 1831,
      "##ҷ": 1832,
      "##ӣ": 1833,
      "##ه": 1834,
      "##س": 1835,
      "##Ж": 1836,
      "##ր": 1837,
      "##ą": 1838,
      "##ῡ": 1839,
      "##χ": 1840,
      "##ّ": 1841,
      "##ف": 1842,
      "##ē": 1843,
      "##ج": 1844,
      "##쟁": 1845,
      "##â": 1846,
      "##ҋ": 1847,
      "##¥": 1848,
      "##ظ": 1849,
      "##ل": 1850,
      "##غ": 1851,
      "##ة": 1852,
      "##🔣": 1853,
      "##⬆": 1854,
      "##⬇": 1855,
      "##⬅": 1856,
      "##➡": 1857,
      "##🔠": 1858,
      "##🔡": 1859,
      "##🔤": 1860,
      "##📷": 1861,
      "##📹": 1862,
      "##📼": 1863,
      "##💿": 1864,
      "##📀": 1865,
      "##💽": 1866,
      "##💾": 1867,
      "##💻": 1868,
      "##📱": 1869,
      "##☎": 1870,
      "##📞": 1871,
      "##📟": 1872,
      "##📠": 1873,
      "##📡": 1874,
      "##📺": 1875,
      "##📻": 1876,
      "##🔊": 1877,
      "##🔉": 1878,
      "##🔈": 1879,
      "##🔇": 1880,
      "##ャ": 1881,
      "##ー": 1882,
      "##ナ": 1883,
      "##ル": 1884,
      "##ὐ": 1885,
      "##ε": 1886,
      "##Ё": 1887,
      "##ě": 1888,
      "##ù": 1889,
      "##ӄ": 1890,
      "##श": 1891,
      "##ो": 1892,
      "##क": 1893,
      "##ः": 1894,
      "##ό": 1895,
      "##ę": 1896,
      "##ल": 1897,
      "##⁄": 1898,
      "##ի": 1899,
      "##¤": 1900,
      "##화": 1901,
      "##재": 1902,
      "##ś": 1903,
      "##ć": 1904,
      "##θ": 1905,
      "##ṇ": 1906,
      "##უ": 1907,
      "##რ": 1908,
      "##ბ": 1909,
      "##پ": 1910,
      "##ி": 1911,
      "##ங": 1912,
      "##்": 1913,
      "##க": 1914,
      "##ப": 1915,
      "##ூ": 1916,
      "##ர": 1917,
      "##ਵ": 1918,
      "##ੀ": 1919,
      "##ਂ": 1920,
      "##ҳ": 1921,
      "##ד": 1922,
      "##ú": 1923,
      "##🇺": 1924,
      "##ġ": 1925,
      "##қ": 1926,
      "##ღ": 1927,
      "##შ": 1928,
      "##ვ": 1929,
      "##ი": 1930,
      "##¢": 1931,
      "##ñ": 1932,
      "##ῖ": 1933,
      "##ğ": 1934,
      "##건": 1935,
      "##희": 1936,
      "##պ": 1937,
      "##տ": 1938,
      "##ط": 1939,
      "##さ": 1940,
      "##と": 1941,
      "##ӈ": 1942,
      "##ک": 1943,
      "##🐤": 1944,
      "##🐥": 1945,
      "##🐣": 1946,
      "##🐔": 1947,
      "##🐍": 1948,
      "##🐢": 1949,
      "##🐛": 1950,
      "##🐝": 1951,
      "##🐜": 1952,
      "##🐞": 1953,
      "##🐌": 1954,
      "##🐙": 1955,
      "##🐚": 1956,
      "##🐠": 1957,
      "##🐟": 1958,
      "##🐬": 1959,
      "##🐳": 1960,
      "##🐋": 1961,
      "##🐄": 1962,
      "##🐏": 1963,
      "##ช": 1964,
      "##อ": 1965,
      "##ณ": 1966,
      "##จ": 1967,
      "##ั": 1968,
      "##ก": 1969,
      "##ร": 1970,
      "##ไ": 1971,
      "##ท": 1972,
      "##ย": 1973,
      "##ə": 1974,
      "##ќ": 1975,
      "##ハ": 1976,
      "##ツ": 1977,
      "##ᠢ": 1978,
      "##ᠴ": 1979,
      "##ᠭ": 1980,
      "##᠌": 1981,
      "##룹": 1982,
      "##ѧ": 1983,
      "##ω": 1984,
      "##ά": 1985,
      "##ع": 1986,
      "##φ": 1987,
      "##ł": 1988,
      "##ہ": 1989,
      "##ʒ": 1990,
      "##ˈ": 1991,
      "##ŋ": 1992,
      "##ɪ": 1993,
      "##ق": 1994,
      "##ት": 1995,
      "##ዮ": 1996,
      "##ጵ": 1997,
      "##ያ": 1998,
      "##գ": 1999,
      "##ર": 2000,
      "##મ": 2001,
      "##ચ": 2002,
      "##દ": 2003,
      "##ż": 2004,
      "##ག": 2005,
      "##འ": 2006,
      "##🇸": 2007,
      "##Щ": 2008,
      "##û": 2009,
      "##া": 2010,
      "##ক": 2011,
      "##ু": 2012,
      "##র": 2013,
      "##ש": 2014,
      "##ר": 2015,
      "##ם": 2016,
      "##Z": 2017,
      "##ե": 2018,
      "##ռ": 2019,
      "##շ": 2020,
      "##ղ": 2021,
      "##թ": 2022,
      "##ह": 2023,
      "##म": 2024,
      "##할": 2025,
      "##시": 2026,
      "##õ": 2027,
      "##ै": 2028,
      "##み": 2029,
      "##주": 2030,
      "##의": 2031,
      "##ḥ": 2032,
      "##ະ": 2033,
      "##ເ": 2034,
      "##ທ": 2035,
      "##ດ": 2036,
      "##ລ": 2037,
      "##າ": 2038,
      "##ວ": 2039,
      "##ग": 2040,
      "##😂": 2041,
      "##😭": 2042,
      "##😪": 2043,
      "##😥": 2044,
      "##😰": 2045,
      "##😅": 2046,
      "##😓": 2047,
      "##😩": 2048,
      "##😫": 2049,
      "##😨": 2050,
      "##😱": 2051,
      "##😠": 2052,
      "##😡": 2053,
      "##😤": 2054,
      "##😖": 2055,
      "##😆": 2056,
      "##😋": 2057,
      "##😷": 2058,
      "##😎": 2059,
      "##😴": 2060,
      "##হ": 2061,
      "##ম": 2062,
      "##্": 2063,
      "##দ": 2064,
      "##ֵ": 2065,
      "##ל": 2066,
      "##ং": 2067,
      "##ֲ": 2068,
      "##ㄴ": 2069,
      "##ㄷ": 2070,
      "##ㄹ": 2071,
      "##ㅁ": 2072,
      "##ㅂ": 2073,
      "##ㅅ": 2074,
      "##ㅇ": 2075,
      "##ㅈ": 2076,
      "##ㅊ": 2077,
      "##ㅋ": 2078,
      "##ㅌ": 2079,
      "##ㅍ": 2080,
      "##ㅎ": 2081,
      "##π": 2082,
      "##ﻧ": 2083,
      "##ﺭ": 2084,
      "##ﺑ": 2085,
      "##ﺎ": 2086,
      "##ڠ": 2087,
      "##כ": 2088,
      "##ן": 2089,
      "##사": 2090,
      "##와": 2091,
      "##⃣": 2092,
      "##🔟": 2093,
      "##🔢": 2094,
      "##द": 2095,
      "##े": 2096,
      "##פ": 2097,
      "##ئ": 2098,
      "##œ": 2099,
      "##ى": 2100,
      "##ী": 2101,
      "##ণ": 2102,
      "##є": 2103,
      "##դ": 2104,
      "##व": 2105,
      "##ۈ": 2106,
      "##چ": 2107,
      "##ї": 2108,
      "##ਿ": 2109,
      "##ੱ": 2110,
      "##ਲ": 2111,
      "##ɾ": 2112,
      "##ि": 2113,
      "##स": 2114,
      "##ɑ": 2115,
      "##ニ": 2116,
      "##ო": 2117,
      "##ტ": 2118,
      "##კ": 2119,
      "##ນ": 2120,
      "##ັ": 2121,
      "##ཁ": 2122,
      "##ོ": 2123,
      "##ར": 2124,
      "##방": 2125,
      "##่": 2126,
      "##ิ": 2127,
      "##น": 2128,
      "##글": 2129,
      "##₁": 2130,
      "##ց": 2131,
      "##ă": 2132,
      "##ﻮ": 2133,
      "##ﻟ": 2134,
      "##ﯘ": 2135,
      "##ს": 2136,
      "##ŭ": 2137,
      "##ἰ": 2138,
      "##ᾰ": 2139,
      "##양": 2140,
      "##🇳": 2141,
      "##ِ": 2142,
      "##ْ": 2143,
      "##َ": 2144,
      "##🇷": 2145,
      "##ト": 2146,
      "##ס": 2147,
      "##υ": 2148,
      "##إ": 2149,
      "##ە": 2150,
      "##ڭ": 2151,
      "##ė": 2152,
      "##ો": 2153,
      "##હ": 2154,
      "##ન": 2155,
      "##સ": 2156,
      "##ĕ": 2157,
      "##উ": 2158,
      "##ন": 2159,
      "##স": 2160,
      "##ຊ": 2161,
      "##ົ": 2162,
      "##ἶ": 2163,
      "##ȳ": 2164,
      "##บ": 2165,
      "##ใ": 2166,
      "##ห": 2167,
      "##ญ": 2168,
      "##ी": 2169,
      "##ԓ": 2170,
      "##과": 2171,
      "##ら": 2172,
      "##が": 2173,
      "##な": 2174,
      "##͡": 2175,
      "##ê": 2176,
      "##리": 2177,
      "##โ": 2178,
      "##−": 2179,
      "##レ": 2180,
      "##ス": 2181,
      "##テ": 2182,
      "##シ": 2183,
      "##ョ": 2184,
      "##č": 2185,
      "##ク": 2186,
      "##サ": 2187,
      "##ꙑ": 2188,
      "##ব": 2189,
      "##থ": 2190,
      "##أ": 2191,
      "##Ī": 2192,
      "##ṗ": 2193,
      "##ᠤ": 2194,
      "##ᠯ": 2195,
      "##이": 2196,
      "##니": 2197,
      "##ϊ": 2198,
      "##ཀ": 2199,
      "##ྲ": 2200,
      "##ິ": 2201,
      "##ປ": 2202,
      "##ໄ": 2203,
      "##ຕ": 2204,
      "##ヨ": 2205,
      "##タ": 2206,
      "##ҹ": 2207,
      "##😍": 2208,
      "##강": 2209,
      "##식": 2210,
      "##₂": 2211,
      "##ᠦ": 2212,
      "##ᠡ": 2213,
      "##ᠲ": 2214,
      "##ý": 2215,
      "##ώ": 2216,
      "##º": 2217,
      "##ᓄ": 2218,
      "##ᐃ": 2219,
      "##ᑦ": 2220,
      "##래": 2221,
      "##ム": 2222,
      "##च": 2223,
      "##å": 2224,
      "##Ћ": 2225,
      "##🇵": 2226,
      "##ᠺ": 2227,
      "##ᠫ": 2228,
      "##ᠳ": 2229,
      "##ᠶ": 2230,
      "##ᠠ": 2231,
      "##례": 2232,
      "##본": 2233,
      "##기": 2234,
      "##ダ": 2235,
      "##산": 2236,
      "##찬": 2237,
      "##ワ": 2238,
      "##ῆ": 2239,
      "##ῶ": 2240,
      "##ण": 2241,
      "##ɫ": 2242,
      "##เ": 2243,
      "##ื": 2244,
      "##ṭ": 2245,
      "##ู": 2246,
      "##็": 2247,
      "##ต": 2248,
      "##나": 2249,
      "##ド": 2250,
      "##울": 2251,
      "##ג": 2252,
      "##ྡ": 2253,
      "##ན": 2254,
      "##ガ": 2255,
      "##մ": 2256,
      "##심": 2257,
      "##ん": 2258,
      "##む": 2259,
      "##り": 2260,
      "##성": 2261,
      "##실": 2262,
      "##ņ": 2263,
      "##ﻲ": 2264,
      "##🗻": 2265,
      "##🌄": 2266,
      "##🌅": 2267,
      "##🌃": 2268,
      "##🗽": 2269,
      "##🌉": 2270,
      "##🎠": 2271,
      "##🎡": 2272,
      "##⛲": 2273,
      "##🎢": 2274,
      "##🚢": 2275,
      "##⛵": 2276,
      "##🚤": 2277,
      "##🚣": 2278,
      "##⚓": 2279,
      "##🚀": 2280,
      "##✈": 2281,
      "##💺": 2282,
      "##🚁": 2283,
      "##🚂": 2284,
      "##ད": 2285,
      "##ń": 2286,
      "##ᠪ": 2287,
      "##ᠷ": 2288,
      "##ᠬ": 2289,
      "##ज": 2290,
      "##ժ": 2291,
      "##آ": 2292,
      "##병": 2293,
      "##철": 2294,
      "##ི": 2295,
      "##ས": 2296,
      "##ʊ": 2297,
      "##ɜ": 2298,
      "##ɡ": 2299,
      "##ল": 2300,
      "##ত": 2301,
      "##🇹": 2302,
      "##돌": 2303,
      "##ᠣ": 2304,
      "##ᠩ": 2305,
      "##다": 2306,
      "##צ": 2307,
      "##ар": 2308,
      "##ан": 2309,
      "##эр": 2310,
      "##аа": 2311,
      "##ын": 2312,
      "##эн": 2313,
      "##ин": 2314,
      "##ыл": 2315,
      "##уо": 2316,
      "##ал": 2317,
      "##тт": 2318,
      "##он": 2319,
      "##ор": 2320,
      "##та": 2321,
      "##ай": 2322,
      "##ил": 2323,
      "##лар": 2324,
      "##ст": 2325,
      "##ах": 2326,
      "##өр": 2327,
      "##ии": 2328,
      "##ыы": 2329,
      "##уу": 2330,
      "##ит": 2331,
      "##эт": 2332,
      "##ат": 2333,
      "##эл": 2334,
      "##ун": 2335,
      "##аах": 2336,
      "ту": 2337,
      "##на": 2338,
      "##эх": 2339,
      "##ск": 2340,
      "буо": 2341,
      "##ол": 2342,
      "##аҕ": 2343,
      "##ары": 2344,
      "##рд": 2345,
      "ди": 2346,
      "##иһ": 2347,
      "сыл": 2348,
      "##гар": 2349,
      "##ыт": 2350,
      "##ара": 2351,
      "##эй": 2352,
      "##ра": 2353,
      "##ов": 2354,
      "##га": 2355,
      "##ук": 2356,
      "ол": 2357,
      "кы": 2358,
      "##ик": 2359,
      "##иг": 2360,
      "##үн": 2361,
      "уон": 2362,
      "дь": 2363,
      "уонна": 2364,
      "диэн": 2365,
      "##ия": 2366,
      "##ул": 2367,
      "буол": 2368,
      "##ир": 2369,
      "##ур": 2370,
      "##ут": 2371,
      "19": 2372,
      "##ыһ": 2373,
      "##иһи": 2374,
      "##лэр": 2375,
      "##үү": 2376,
      "##иэ": 2377,
      "##эҕ": 2378,
      "##иир": 2379,
      "##ас": 2380,
      "##ох": 2381,
      "##арын": 2382,
      "сан": 2383,
      "##ер": 2384,
      "##йд": 2385,
      "үөр": 2386,
      "бил": 2387,
      "##үг": 2388,
      "##бит": 2389,
      "##аһ": 2390,
      "##аан": 2391,
      "##аҥ": 2392,
      "киһи": 2393,
      "##гэ": 2394,
      "ку": 2395,
      "##ыгар": 2396,
      "##ээх": 2397,
      "##тын": 2398,
      "##чч": 2399,
      "оҥ": 2400,
      "санаа": 2401,
      "##кк": 2402,
      "ул": 2403,
      "##эрэ": 2404,
      "##ен": 2405,
      "##игэр": 2406,
      "##аар": 2407,
      "##ттан": 2408,
      "##нь": 2409,
      "быһ": 2410,
      "##үт": 2411,
      "##дь": 2412,
      "##эм": 2413,
      "##эһ": 2414,
      "##от": 2415,
      "##ам": 2416,
      "оҥор": 2417,
      "##лб": 2418,
      "##ык": 2419,
      "##ич": 2420,
      "##ыыл": 2421,
      "##ом": 2422,
      "##үө": 2423,
      "##ев": 2424,
      "##ыр": 2425,
      "тыл": 2426,
      "кө": 2427,
      "##эрин": 2428,
      "эр": 2429,
      "ар": 2430,
      "эт": 2431,
      "##эри": 2432,
      "##аллар": 2433,
      "##тан": 2434,
      "үл": 2435,
      "##ынан": 2436,
      "##лаах": 2437,
      "##ха": 2438,
      "##уй": 2439,
      "##быт": 2440,
      "##ээ": 2441,
      "##оҕ": 2442,
      "##пп": 2443,
      "##сп": 2444,
      "##ый": 2445,
      "##ттэн": 2446,
      "##ата": 2447,
      "##уох": 2448,
      "##скай": 2449,
      "##аха": 2450,
      "##үл": 2451,
      "дьон": 2452,
      "20": 2453,
      "##им": 2454,
      "иһ": 2455,
      "##ини": 2456,
      "##ыта": 2457,
      "көр": 2458,
      "##аҕа": 2459,
      "##аны": 2460,
      "##анн": 2461,
      "оҕ": 2462,
      "##тар": 2463,
      "##рдук": 2464,
      "да": 2465,
      "буолар": 2466,
      "бар": 2467,
      "##айд": 2468,
      "##ҕа": 2469,
      "##ий": 2470,
      "##ус": 2471,
      "тү": 2472,
      "##уол": 2473,
      "##өб": 2474,
      "өй": 2475,
      "##ок": 2476,
      "##этин": 2477,
      "ай": 2478,
      "##этэ": 2479,
      "##сс": 2480,
      "бэй": 2481,
      "##нн": 2482,
      "##най": 2483,
      "##ааһ": 2484,
      "кэм": 2485,
      "##уб": 2486,
      "##ойд": 2487,
      "##алар": 2488,
      "##энн": 2489,
      "##үгэр": 2490,
      "олох": 2491,
      "туһ": 2492,
      "##инэ": 2493,
      "##аб": 2494,
      "##ой": 2495,
      "си": 2496,
      "##эхт": 2497,
      "үө": 2498,
      "Дь": 2499,
      "төр": 2500,
      "элб": 2501,
      "##об": 2502,
      "##ыын": 2503,
      "##гы": 2504,
      "эм": 2505,
      "сылдь": 2506,
      "##атын": 2507,
      "сыллаах": 2508,
      "##ттар": 2509,
      "Ол": 2510,
      "##эллэр": 2511,
      "##аас": 2512,
      "дойд": 2513,
      "сир": 2514,
      "##ахан": 2515,
      "##ҥҥ": 2516,
      "Саха": 2517,
      "эрэ": 2518,
      "##ааҕ": 2519,
      "##кт": 2520,
      "##ет": 2521,
      "сал": 2522,
      "##угар": 2523,
      "##үр": 2524,
      "##ыб": 2525,
      "бары": 2526,
      "##ыыр": 2527,
      "сыллаахха": 2528,
      "##бэт": 2529,
      "##ым": 2530,
      "##кки": 2531,
      "##ел": 2532,
      "##үгэй": 2533,
      "##ахс": 2534,
      "үөск": 2535,
      "##чүгэй": 2536,
      "күн": 2537,
      "хаа": 2538,
      "##иэр": 2539,
      "киир": 2540,
      "##ед": 2541,
      "сө": 2542,
      "##таах": 2543,
      "Бу": 2544,
      "##һаҕ": 2545,
      "##хс": 2546,
      "##ог": 2547,
      "##иит": 2548,
      "тур": 2549,
      "##өл": 2550,
      "##ем": 2551,
      "сөп": 2552,
      "##һун": 2553,
      "##эҕэ": 2554,
      "баар": 2555,
      "##рат": 2556,
      "##ли": 2557,
      "суох": 2558,
      "кэл": 2559,
      "##олор": 2560,
      "үчүгэй": 2561,
      "##ос": 2562,
      "дойду": 2563,
      "үлэл": 2564,
      "##ына": 2565,
      "өйд": 2566,
      "##ээн": 2567,
      "биир": 2568,
      "сур": 2569,
      "200": 2570,
      "улахан": 2571,
      "бу": 2572,
      "##оп": 2573,
      "куһаҕ": 2574,
      "аа": 2575,
      "##иллэр": 2576,
      "##эб": 2577,
      "ый": 2578,
      "##ка": 2579,
      "##да": 2580,
      "был": 2581,
      "өр": 2582,
      "##арыгар": 2583,
      "сайд": 2584,
      "##то": 2585,
      "куо": 2586,
      "икки": 2587,
      "олор": 2588,
      "##унан": 2589,
      "аһ": 2590,
      "##тон": 2591,
      "##ҥэ": 2592,
      "##бут": 2593,
      "кытт": 2594,
      "##инэн": 2595,
      "##ла": 2596,
      "курдук": 2597,
      "##ция": 2598,
      "##иттэн": 2599,
      "тут": 2600,
      "##өн": 2601,
      "саҥ": 2602,
      "##аннык": 2603,
      "##ута": 2604,
      "улуу": 2605,
      "ки": 2606,
      "ор": 2607,
      "##ылл": 2608,
      "##од": 2609,
      "тахс": 2610,
      "##ҥн": 2611,
      "##битэ": 2612,
      "##эһил": 2613,
      "хам": 2614,
      "таҥ": 2615,
      "##үтт": 2616,
      "##һа": 2617,
      "##кка": 2618,
      "##ааҕы": 2619,
      "##лара": 2620,
      "##үк": 2621,
      "быһаар": 2622,
      "##кс": 2623,
      "Ал": 2624,
      "ит": 2625,
      "##ты": 2626,
      "##ттара": 2627,
      "оҥорор": 2628,
      "##эргэ": 2629,
      "##ааб": 2630,
      "он": 2631,
      "##ааһын": 2632,
      "сах": 2633,
      "##ахт": 2634,
      "##өһ": 2635,
      "буолуу": 2636,
      "##итт": 2637,
      "##тор": 2638,
      "##аста": 2639,
      "##аачч": 2640,
      "##иэн": 2641,
      "таһ": 2642,
      "##уг": 2643,
      "ан": 2644,
      "пр": 2645,
      "ордук": 2646,
      "##ыытын": 2647,
      "төрө": 2648,
      "##улл": 2649,
      "##ович": 2650,
      "##өбүл": 2651,
      "сит": 2652,
      "##үүр": 2653,
      "##аай": 2654,
      "##ард": 2655,
      "ил": 2656,
      "##алаах": 2657,
      "##ста": 2658,
      "ыл": 2659,
      "ахс": 2660,
      "##оһ": 2661,
      "баран": 2662,
      "тутт": 2663,
      "##илэр": 2664,
      "бэл": 2665,
      "##ааст": 2666,
      "##өх": 2667,
      "үөрэт": 2668,
      "##үнэн": 2669,
      "нэһил": 2670,
      "күү": 2671,
      "##уон": 2672,
      "##тыгар": 2673,
      "буолан": 2674,
      "##йэ": 2675,
      "ом": 2676,
      "##ьев": 2677,
      "##ыбыт": 2678,
      "##ум": 2679,
      "эмиэ": 2680,
      "биллэр": 2681,
      "ыр": 2682,
      "олус": 2683,
      "##уур": 2684,
      "этэ": 2685,
      "киһ": 2686,
      "улар": 2687,
      "##ей": 2688,
      "куһаҕан": 2689,
      "##ыттан": 2690,
      "көм": 2691,
      "элбэх": 2692,
      "кыра": 2693,
      "##итэ": 2694,
      "##ист": 2695,
      "ал": 2696,
      "үрд": 2697,
      "##игин": 2698,
      "##бэтэр": 2699,
      "суол": 2700,
      "##үс": 2701,
      "ист": 2702,
      "##дэр": 2703,
      "##бэ": 2704,
      "хай": 2705,
      "нэһилиэ": 2706,
      "эбэтэр": 2707,
      "##кут": 2708,
      "##ыллар": 2709,
      "##уст": 2710,
      "сы": 2711,
      "18": 2712,
      "##ыыны": 2713,
      "ба": 2714,
      "##пс": 2715,
      "##эрил": 2716,
      "Киһи": 2717,
      "кытта": 2718,
      "кэнн": 2719,
      "таб": 2720,
      "201": 2721,
      "быһыыл": 2722,
      "##аль": 2723,
      "сэр": 2724,
      "санаата": 2725,
      "##из": 2726,
      "хаһ": 2727,
      "улаа": 2728,
      "оҕо": 2729,
      "##амм": 2730,
      "##оон": 2731,
      "хол": 2732,
      "омук": 2733,
      "биэр": 2734,
      "ахсаан": 2735,
      "##00": 2736,
      "##ыргы": 2737,
      "саха": 2738,
      "бүт": 2739,
      "Ай": 2740,
      "буолб": 2741,
      "##мм": 2742,
      "аҕ": 2743,
      "##ика": 2744,
      "##ска": 2745,
      "##ост": 2746,
      "##ак": 2747,
      "тии": 2748,
      "##иче": 2749,
      "##ыыта": 2750,
      "##эҕинэ": 2751,
      "##эригэр": 2752,
      "ур": 2753,
      "##арга": 2754,
      "олоҕ": 2755,
      "##анан": 2756,
      "##аал": 2757,
      "##хо": 2758,
      "##алыы": 2759,
      "##ре": 2760,
      "##ств": 2761,
      "суруй": 2762,
      "кыай": 2763,
      "уч": 2764,
      "##уут": 2765,
      "##оруо": 2766,
      "##инн": 2767,
      "199": 2768,
      "баста": 2769,
      "атын": 2770,
      "Ар": 2771,
      "көрд": 2772,
      "өтт": 2773,
      "Ник": 2774,
      "##аҕар": 2775,
      "##ци": 2776,
      "үт": 2777,
      "аатт": 2778,
      "хал": 2779,
      "кэ": 2780,
      "оҕолор": 2781,
      "##ав": 2782,
      "кин": 2783,
      "Оҕ": 2784,
      "сүр": 2785,
      "өйө": 2786,
      "##ад": 2787,
      "##ид": 2788,
      "сахалар": 2789,
      "Он": 2790,
      "##ларын": 2791,
      "##арынан": 2792,
      "##үөн": 2793,
      "##наах": 2794,
      "бы": 2795,
      "##эҕи": 2796,
      "##уор": 2797,
      "саҕ": 2798,
      "##гын": 2799,
      "араас": 2800,
      "сыы": 2801,
      "##уруу": 2802,
      "кут": 2803,
      "##ив": 2804,
      "194": 2805,
      "ин": 2806,
      "күнүгэр": 2807,
      "##үөл": 2808,
      "##аст": 2809,
      "##үҥ": 2810,
      "##уга": 2811,
      "Ул": 2812,
      "Якут": 2813,
      "иит": 2814,
      "##иирд": 2815,
      "##окуу": 2816,
      "эрд": 2817,
      "тэ": 2818,
      "##ис": 2819,
      "Дьокуу": 2820,
      "##эни": 2821,
      "Дьокуускай": 2822,
      "##уһ": 2823,
      "на": 2824,
      "##өбүт": 2825,
      "##уннь": 2826,
      "##ова": 2827,
      "иһин": 2828,
      "Ан": 2829,
      "##атыгар": 2830,
      "##иэт": 2831,
      "бул": 2832,
      "##аҕына": 2833,
      "тэрил": 2834,
      "##кы": 2835,
      "салай": 2836,
      "##скуол": 2837,
      "##нар": 2838,
      "үөрэн": 2839,
      "кэмҥэ": 2840,
      "аат": 2841,
      "##иил": 2842,
      "##уд": 2843,
      "уларый": 2844,
      "##СР": 2845,
      "##оч": 2846,
      "км": 2847,
      "##анар": 2848,
      "##ина": 2849,
      "##өрө": 2850,
      "##акка": 2851,
      "##уллуб": 2852,
      "##ана": 2853,
      "ыйын": 2854,
      "эбит": 2855,
      "өйдөбүл": 2856,
      "##иигэ": 2857,
      "аан": 2858,
      "куора": 2859,
      "##еп": 2860,
      "198": 2861,
      "тир": 2862,
      "##эк": 2863,
      "былыргы": 2864,
      "бэйэл": 2865,
      "##ээбит": 2866,
      "буолл": 2867,
      "кыах": 2868,
      "ара": 2869,
      "иһэр": 2870,
      "Никол": 2871,
      "эб": 2872,
      "##ылы": 2873,
      "кэр": 2874,
      "##олл": 2875,
      "төрөөбүт": 2876,
      "##уучч": 2877,
      "##ри": 2878,
      "##ван": 2879,
      "##тэн": 2880,
      "##анд": 2881,
      "баһ": 2882,
      "сат": 2883,
      "##өт": 2884,
      "таҥара": 2885,
      "аһара": 2886,
      "тиий": 2887,
      "##анна": 2888,
      "оскуол": 2889,
      "##ылар": 2890,
      "бэйэтин": 2891,
      "урат": 2892,
      "##эмм": 2893,
      "хар": 2894,
      "##ура": 2895,
      "аата": 2896,
      "кини": 2897,
      "##ыыга": 2898,
      "##эхэ": 2899,
      "сылдьар": 2900,
      "##эринэн": 2901,
      "##гу": 2902,
      "хаал": 2903,
      "хот": 2904,
      "саҕал": 2905,
      "##хэ": 2906,
      "##скэй": 2907,
      "кул": 2908,
      "##илл": 2909,
      "##екс": 2910,
      "193": 2911,
      "онтон": 2912,
      "биирд": 2913,
      "##ическай": 2914,
      "##ияҕа": 2915,
      "##үүл": 2916,
      "##ек": 2917,
      "##аары": 2918,
      "сыллар": 2919,
      "Вас": 2920,
      "##иб": 2921,
      "##ель": 2922,
      "##уун": 2923,
      "196": 2924,
      "Васил": 2925,
      "бал": 2926,
      "##ник": 2927,
      "##эҕин": 2928,
      "туох": 2929,
      "##ап": 2930,
      "түм": 2931,
      "10": 2932,
      "Иван": 2933,
      "##рдь": 2934,
      "##уллар": 2935,
      "##ээхт": 2936,
      "олохто": 2937,
      "кыр": 2938,
      "Бил": 2939,
      "үөрэхт": 2940,
      "##ҥа": 2941,
      "иҥ": 2942,
      "от": 2943,
      "##ыа": 2944,
      "##ыттара": 2945,
      "быр": 2946,
      "##этигэр": 2947,
      "##тэ": 2948,
      "##аларын": 2949,
      "197": 2950,
      "көст": 2951,
      "##арыттан": 2952,
      "саҥа": 2953,
      "##оф": 2954,
      "##ыһы": 2955,
      "тыллар": 2956,
      "кыһ": 2957,
      "##өөх": 2958,
      "##ытар": 2959,
      "##иитин": 2960,
      "түһ": 2961,
      "##гор": 2962,
      "##өҕ": 2963,
      "хамс": 2964,
      "тусп": 2965,
      "үй": 2966,
      "Сах": 2967,
      "##арыст": 2968,
      "##уктаах": 2969,
      "улууһун": 2970,
      "куорат": 2971,
      "ой": 2972,
      "кыл": 2973,
      "уһун": 2974,
      "айыы": 2975,
      "үгэ": 2976,
      "барыта": 2977,
      "195": 2978,
      "ыар": 2979,
      "Сир": 2980,
      "##йа": 2981,
      "##тарын": 2982,
      "##олог": 2983,
      "192": 2984,
      "##альнай": 2985,
      "билигин": 2986,
      "онн": 2987,
      "##тык": 2988,
      "##ҥҥа": 2989,
      "үр": 2990,
      "##иитэ": 2991,
      "туһунан": 2992,
      "эмэ": 2993,
      "##оннь": 2994,
      "##уус": 2995,
      "көт": 2996,
      "сор": 2997,
      "##һү": 2998,
      "##нор": 2999,
      "##ыбыта": 3000,
      "ре": 3001,
      "баҕар": 3002,
      "12": 3003,
      "Дьон": 3004,
      "##айы": 3005,
      "ахсаана": 3006,
      "##ээчч": 3007,
      "тутул": 3008,
      "бэйэтэ": 3009,
      "соҕ": 3010,
      "буолбут": 3011,
      "##ны": 3012,
      "инн": 3013,
      "##чы": 3014,
      "##евич": 3015,
      "турар": 3016,
      "толор": 3017,
      "тар": 3018,
      "##эххэ": 3019,
      "##ыгы": 3020,
      "##охтор": 3021,
      "Оҕо": 3022,
      "##ент": 3023,
      "##оҥ": 3024,
      "##ахха": 3025,
      "киллэр": 3026,
      "##ыттар": 3027,
      "санаатын": 3028,
      "нуучч": 3029,
      "Ит": 3030,
      "##го": 3031,
      "олорор": 3032,
      "хом": 3033,
      "##алара": 3034,
      "ааттан": 3035,
      "##ону": 3036,
      "уст": 3037,
      "Кини": 3038,
      "##етр": 3039,
      "холб": 3040,
      "##аам": 3041,
      "элбэхт": 3042,
      "өл": 3043,
      "##этэр": 3044,
      "##ссө": 3045,
      "##ьевич": 3046,
      "Ро": 3047,
      "буола": 3048,
      "туспа": 3049,
      "17": 3050,
      "охс": 3051,
      "##аллаах": 3052,
      "##ккэ": 3053,
      "үлэһ": 3054,
      "##ыыллар": 3055,
      "##уттан": 3056,
      "араар": 3057,
      "##аллара": 3058,
      "Алекс": 3059,
      "ум": 3060,
      "##скэ": 3061,
      "хас": 3062,
      "кэнниттэн": 3063,
      "быһыытын": 3064,
      "##эс": 3065,
      "##тары": 3066,
      "##бүт": 3067,
      "бастакы": 3068,
      "##оҕо": 3069,
      "##алл": 3070,
      "##иттэр": 3071,
      "##аабыт": 3072,
      "тириэр": 3073,
      "##ыларын": 3074,
      "##үкт": 3075,
      "15": 3076,
      "май": 3077,
      "##ков": 3078,
      "##ала": 3079,
      "ханнык": 3080,
      "##дэ": 3081,
      "Ара": 3082,
      "##эриттэн": 3083,
      "аҕый": 3084,
      "##гэн": 3085,
      "##иэм": 3086,
      "түб": 3087,
      "туо": 3088,
      "ат": 3089,
      "сыыһа": 3090,
      "##ҥҥэ": 3091,
      "уоб": 3092,
      "ийэ": 3093,
      "сирд": 3094,
      "##ера": 3095,
      "##үлүү": 3096,
      "итэҕ": 3097,
      "сп": 3098,
      "сүрүн": 3099,
      "##ку": 3100,
      "##үттэн": 3101,
      "ситиһ": 3102,
      "үөрэҕэ": 3103,
      "##ыытыгар": 3104,
      "нэһилиэг": 3105,
      "##элэр": 3106,
      "уол": 3107,
      "кэмигэр": 3108,
      "ком": 3109,
      "мөл": 3110,
      "##үй": 3111,
      "##үһ": 3112,
      "Аан": 3113,
      "тох": 3114,
      "##лүөн": 3115,
      "Росс": 3116,
      "киирэр": 3117,
      "##оск": 3118,
      "##бул": 3119,
      "сыһы": 3120,
      "сэб": 3121,
      "баҕа": 3122,
      "16": 3123,
      "##ие": 3124,
      "##дан": 3125,
      "##үөх": 3126,
      "кэпс": 3127,
      "ооннь": 3128,
      "##ээбитэ": 3129,
      "хара": 3130,
      "##илли": 3131,
      "##ма": 3132,
      "##ааҕа": 3133,
      "сайдан": 3134,
      "##ааны": 3135,
      "өссө": 3136,
      "##ньы": 3137,
      "диэри": 3138,
      "үрдүк": 3139,
      "##орд": 3140,
      "##оллор": 3141,
      "##ҕаа": 3142,
      "эк": 3143,
      "##үнэ": 3144,
      "##ото": 3145,
      "##тара": 3146,
      "Кы": 3147,
      "тул": 3148,
      "өлб": 3149,
      "##аннар": 3150,
      "##убл": 3151,
      "##энэр": 3152,
      "дьи": 3153,
      "кэмн": 3154,
      "сиригэр": 3155,
      "##ахтарын": 3156,
      "аҥ": 3157,
      "быһаарар": 3158,
      "##иттэрэ": 3159,
      "##иги": 3160,
      "бир": 3161,
      "норуо": 3162,
      "##аад": 3163,
      "##таан": 3164,
      "тугу": 3165,
      "дьо": 3166,
      "##аммыт": 3167,
      "##ыллыбыт": 3168,
      "бүтэр": 3169,
      "##ыылаах": 3170,
      "даҕ": 3171,
      "төрөпп": 3172,
      "##стээх": 3173,
      "Бүлүү": 3174,
      "##оль": 3175,
      "сай": 3176,
      "дьай": 3177,
      "##эрий": 3178,
      "##их": 3179,
      "191": 3180,
      "тө": 3181,
      "кэб": 3182,
      "##ран": 3183,
      "буоллаҕына": 3184,
      "эрг": 3185,
      "##ссыы": 3186,
      "Сахалар": 3187,
      "##овна": 3188,
      "таҥар": 3189,
      "##ерат": 3190,
      "##ыс": 3191,
      "Арассыы": 3192,
      "буолбута": 3193,
      "##спубл": 3194,
      "##уз": 3195,
      "##ба": 3196,
      "оҥоруу": 3197,
      "##угу": 3198,
      "##но": 3199,
      "киинэ": 3200,
      "##ттарын": 3201,
      "оҥорон": 3202,
      "киэ": 3203,
      "##пыт": 3204,
      "киһини": 3205,
      "даҕаны": 3206,
      "##гэнн": 3207,
      "орой": 3208,
      "көрдөр": 3209,
      "баай": 3210,
      "таһаар": 3211,
      "##огра": 3212,
      "Билигин": 3213,
      "эдэр": 3214,
      "14": 3215,
      "ууст": 3216,
      "Петр": 3217,
      "##аата": 3218,
      "##имир": 3219,
      "баҕарар": 3220,
      "##ээһ": 3221,
      "##ылаах": 3222,
      "харыст": 3223,
      "саҥаны": 3224,
      "хаһан": 3225,
      "уобал": 3226,
      "11": 3227,
      "күүһ": 3228,
      "##или": 3229,
      "##улуу": 3230,
      "учуут": 3231,
      "##ҥҥо": 3232,
      "түбэһ": 3233,
      "##быта": 3234,
      "##ыҥ": 3235,
      "##ааччы": 3236,
      "Никола": 3237,
      "Ил": 3238,
      "өлбүт": 3239,
      "##ыыһ": 3240,
      "кубул": 3241,
      "##иэннь": 3242,
      "тарҕ": 3243,
      "##уллубут": 3244,
      "##элээх": 3245,
      "куһаҕаны": 3246,
      "##ех": 3247,
      "##ство": 3248,
      "сол": 3249,
      "сылга": 3250,
      "төрүтт": 3251,
      "бөл": 3252,
      "##рав": 3253,
      "этии": 3254,
      "Нь": 3255,
      "көрү": 3256,
      "об": 3257,
      "олоххо": 3258,
      "Ст": 3259,
      "сирин": 3260,
      "Ор": 3261,
      "ыал": 3262,
      "хайд": 3263,
      "##өсп": 3264,
      "били": 3265,
      "быһа": 3266,
      "тылын": 3267,
      "бэлиэт": 3268,
      "кыайан": 3269,
      "##элэ": 3270,
      "оҥорб": 3271,
      "Аф": 3272,
      "баал": 3273,
      "үчүгэйи": 3274,
      "ылб": 3275,
      "##буй": 3276,
      "киһиэхэ": 3277,
      "ити": 3278,
      "##игэ": 3279,
      "уу": 3280,
      "##кин": 3281,
      "суо": 3282,
      "буор": 3283,
      "билли": 3284,
      "##ССР": 3285,
      "кыт": 3286,
      "бэйэлэрин": 3287,
      "##өһээ": 3288,
      "##бат": 3289,
      "##алларын": 3290,
      "маннык": 3291,
      "сытар": 3292,
      "##ес": 3293,
      "олохтор": 3294,
      "##ылҕа": 3295,
      "бэрэ": 3296,
      "маҥ": 3297,
      "үлэлиир": 3298,
      "##аг": 3299,
      "##эллэрэ": 3300,
      "##аз": 3301,
      "##орҕ": 3302,
      "таба": 3303,
      "##эки": 3304,
      "##уттара": 3305,
      "бук": 3306,
      "##ди": 3307,
      "##ания": 3308,
      "##ыны": 3309,
      "##обур": 3310,
      "##иһиги": 3311,
      "Онтон": 3312,
      "##ез": 3313,
      "##аҕан": 3314,
      "баһыл": 3315,
      "ыыт": 3316,
      "туһан": 3317,
      "##орт": 3318,
      "##уна": 3319,
      "ааттанар": 3320,
      "нь": 3321,
      "өрүс": 3322,
      "дылы": 3323,
      "улаатан": 3324,
      "13": 3325,
      "тэрий": 3326,
      "##or": 3327,
      "##бүл": 3328,
      "##стыб": 3329,
      "##эхтэрин": 3330,
      "##ыан": 3331,
      "тыһ": 3332,
      "ону": 3333,
      "##иц": 3334,
      "хамна": 3335,
      "дьоҥҥо": 3336,
      "##ччы": 3337,
      "үг": 3338,
      "дьары": 3339,
      "сылтан": 3340,
      "санаалар": 3341,
      "##лов": 3342,
      "тал": 3343,
      "арахс": 3344,
      "пол": 3345,
      "ыҥ": 3346,
      "кэннэ": 3347,
      "со": 3348,
      "сайын": 3349,
      "Үөһээ": 3350,
      "##ект": 3351,
      "дьону": 3352,
      "Мар": 3353,
      "биирдэ": 3354,
      "элбэхтик": 3355,
      "үөрэҕин": 3356,
      "хон": 3357,
      "үөрэх": 3358,
      "##эпп": 3359,
      "##уул": 3360,
      "##эйд": 3361,
      "үөскүүр": 3362,
      "санаалара": 3363,
      "дойдуга": 3364,
      "##ҥник": 3365,
      "Якутск": 3366,
      "ст": 3367,
      "дьоно": 3368,
      "тард": 3369,
      "##лэ": 3370,
      "уһ": 3371,
      "хаалб": 3372,
      "аатынан": 3373,
      "##ион": 3374,
      "##энэ": 3375,
      "күнэ": 3376,
      "Өр": 3377,
      "##өҥ": 3378,
      "сыан": 3379,
      "##апп": 3380,
      "##ьт": 3381,
      "##орҕоон": 3382,
      "Фед": 3383,
      "##танар": 3384,
      "айм": 3385,
      "өттүгэр": 3386,
      "##ттаах": 3387,
      "киирэн": 3388,
      "##чий": 3389,
      "хоһ": 3390,
      "##үм": 3391,
      "##суй": 3392,
      "##алары": 3393,
      "##ору": 3394,
      "##аабыта": 3395,
      "суолт": 3396,
      "соҕуруу": 3397,
      "омуктар": 3398,
      "##оз": 3399,
      "Арассыыйа": 3400,
      "Был": 3401,
      "аналлаах": 3402,
      "хайдах": 3403,
      "##этт": 3404,
      "##оло": 3405,
      "Моск": 3406,
      "##цион": 3407,
      "кэлэр": 3408,
      "##ест": 3409,
      "уо": 3410,
      "мас": 3411,
      "би": 3412,
      "##өһө": 3413,
      "##изм": 3414,
      "Ки": 3415,
      "##мп": 3416,
      "Олох": 3417,
      "##аайы": 3418,
      "##эммит": 3419,
      "##аамай": 3420,
      "##ория": 3421,
      "көлүөн": 3422,
      "ыҥыр": 3423,
      "##ян": 3424,
      "бэли": 3425,
      "##енн": 3426,
      "##аh": 3427,
      "Ин": 3428,
      "түр": 3429,
      "АССР": 3430,
      "##ҕына": 3431,
      "##ааҕын": 3432,
      "сахалыы": 3433,
      "Россия": 3434,
      "өрүтт": 3435,
      "эти": 3436,
      "##өспүү": 3437,
      "##ылҕ": 3438,
      "##ылара": 3439,
      "##спублик": 3440,
      "##тот": 3441,
      "кэлэн": 3442,
      "##эннэр": 3443,
      "##илии": 3444,
      "аты": 3445,
      "үс": 3446,
      "быһыытынан": 3447,
      "тупс": 3448,
      "дойдулар": 3449,
      "маҥнай": 3450,
      "##бүлүк": 3451,
      "тыын": 3452,
      "##үнн": 3453,
      "киин": 3454,
      "тэҥн": 3455,
      "бэйэ": 3456,
      "##ахтар": 3457,
      "саб": 3458,
      "##өспүүбүлүк": 3459,
      "##мит": 3460,
      "##унньу": 3461,
      "##an": 3462,
      "оҕону": 3463,
      "өйүн": 3464,
      "сс": 3465,
      "##үүт": 3466,
      "Хот": 3467,
      "тус": 3468,
      "##ҥҥи": 3469,
      "Ев": 3470,
      "ылар": 3471,
      "##үлл": 3472,
      "##ология": 3473,
      "оҥоро": 3474,
      "санааны": 3475,
      "олоҕун": 3476,
      "дорҕоон": 3477,
      "##ерс": 3478,
      "сылдьан": 3479,
      "Өй": 3480,
      "##иэскэй": 3481,
      "сиргэ": 3482,
      "##уттар": 3483,
      "ары": 3484,
      "тутуһ": 3485,
      "##стэрэ": 3486,
      "##опс": 3487,
      "Улуу": 3488,
      "лит": 3489,
      "##жен": 3490,
      "хаачч": 3491,
      "##ааннь": 3492,
      "Хол": 3493,
      "##нара": 3494,
      "##er": 3495,
      "дьиэ": 3496,
      "##атах": 3497,
      "##ааһы": 3498,
      "тахсар": 3499,
      "кыахтаах": 3500,
      "##ааччылар": 3501,
      "##ууну": 3502,
      "диэки": 3503,
      "хоһоон": 3504,
      "үлэ": 3505,
      "улууһа": 3506,
      "кэргэн": 3507,
      "##рон": 3508,
      "##рдаах": 3509,
      "хат": 3510,
      "##инг": 3511,
      "##ограф": 3512,
      "##аада": 3513,
      "буолаллар": 3514,
      "##иэст": 3515,
      "тэрилт": 3516,
      "##тах": 3517,
      "Гер": 3518,
      "##емен": 3519,
      "таһынан": 3520,
      "төрөппүтт": 3521,
      "##ро": 3522,
      "##йг": 3523,
      "арый": 3524,
      "##ена": 3525,
      "илин": 3526,
      "##арт": 3527,
      "##даах": 3528,
      "##ого": 3529,
      "нэһилиэгэ": 3530,
      "онно": 3531,
      "мөлт": 3532,
      "тыла": 3533,
      "##ант": 3534,
      "Николай": 3535,
      "кубулуй": 3536,
      "арҕаа": 3537,
      "уур": 3538,
      "сэрии": 3539,
      "куоракка": 3540,
      "олохсуй": 3541,
      "саамай": 3542,
      "диэ": 3543,
      "биллэрэр": 3544,
      "иһигэр": 3545,
      "Айыы": 3546,
      "бастаан": 3547,
      "бэр": 3548,
      "##тун": 3549,
      "сөбүл": 3550,
      "орто": 3551,
      "сиин": 3552,
      "ты": 3553,
      "##ва": 3554,
      "көрөн": 3555,
      "ана": 3556,
      "кэлин": 3557,
      "муннь": 3558,
      "үрүҥ": 3559,
      "үөскээбит": 3560,
      "АХ": 3561,
      "бөлөх": 3562,
      "##гыны": 3563,
      "сылларга": 3564,
      "умн": 3565,
      "кон": 3566,
      "АХШ": 3567,
      "по": 3568,
      "Кин": 3569,
      "##си": 3570,
      "ард": 3571,
      "бааллар": 3572,
      "Егор": 3573,
      "##алас": 3574,
      "барар": 3575,
      "иннинэ": 3576,
      "##пт": 3577,
      "Пр": 3578,
      "кырдь": 3579,
      "халты": 3580,
      "санаатыгар": 3581,
      "сүө": 3582,
      "барытын": 3583,
      "бэ": 3584,
      "##өөн": 3585,
      "##ча": 3586,
      "##лэрэ": 3587,
      "уобалаһ": 3588,
      "2007": 3589,
      "##элэрэ": 3590,
      "Баста": 3591,
      "тутар": 3592,
      "көрс": 3593,
      "үөрэтэр": 3594,
      "көмү": 3595,
      "оройуон": 3596,
      "Кыта": 3597,
      "Сэб": 3598,
      "эрдэҕинэ": 3599,
      "өйүгэр": 3600,
      "##ытын": 3601,
      "##эйи": 3602,
      "арааран": 3603,
      "##лав": 3604,
      "дири": 3605,
      "чин": 3606,
      "буолара": 3607,
      "айыыны": 3608,
      "майг": 3609,
      "##ики": 3610,
      "оҥоһ": 3611,
      "көтөр": 3612,
      "ааҕ": 3613,
      "түүл": 3614,
      "##on": 3615,
      "Ам": 3616,
      "##аттар": 3617,
      "##ыллан": 3618,
      "##ец": 3619,
      "үөскээн": 3620,
      "үлэлээбитэ": 3621,
      "литерат": 3622,
      "Хаҥ": 3623,
      "туттар": 3624,
      "##эҕиттэн": 3625,
      "ССР": 3626,
      "##роп": 3627,
      "##уч": 3628,
      "##уулар": 3629,
      "##ыылара": 3630,
      "##ичик": 3631,
      "##стит": 3632,
      "куората": 3633,
      "##илээх": 3634,
      "үөрэтии": 3635,
      "##үөр": 3636,
      "кута": 3637,
      "##омм": 3638,
      "##укку": 3639,
      "төрөөбүтэ": 3640,
      "##оро": 3641,
      "##кра": 3642,
      "##ще": 3643,
      "##ууга": 3644,
      "##аммыта": 3645,
      "##эдэ": 3646,
      "туһалаах": 3647,
      "сэри": 3648,
      "##иан": 3649,
      "буолуох": 3650,
      "санаалаах": 3651,
      "##иитигэр": 3652,
      "##стах": 3653,
      "##гыы": 3654,
      "Ре": 3655,
      "##элэрин": 3656,
      "билэр": 3657,
      "туттуллар": 3658,
      "көмөл": 3659,
      "хайа": 3660,
      "##иллэн": 3661,
      "##стар": 3662,
      "##уну": 3663,
      "салаа": 3664,
      "бэлэм": 3665,
      "эпп": 3666,
      "тылы": 3667,
      "быһыылаах": 3668,
      "син": 3669,
      "##еев": 3670,
      "көстөр": 3671,
      "##тыы": 3672,
      "##бута": 3673,
      "##оном": 3674,
      "буоларын": 3675,
      "##илиэн": 3676,
      "Сиб": 3677,
      "##ымн": 3678,
      "ыары": 3679,
      "бур": 3680,
      "##утугар": 3681,
      "Ити": 3682,
      "оҥорбут": 3683,
      "##ойон": 3684,
      "ылан": 3685,
      "Семен": 3686,
      "төрүт": 3687,
      "##ыпп": 3688,
      "быһыылары": 3689,
      "##ком": 3690,
      "##эйэ": 3691,
      "##пч": 3692,
      "##уута": 3693,
      "##██": 3694,
      "бириэм": 3695,
      "дьарык": 3696,
      "##ахтаах": 3697,
      "##элин": 3698,
      "үөскэт": 3699,
      "##уллан": 3700,
      "исп": 3701,
      "##ыылар": 3702,
      "##аҕын": 3703,
      "үйэ": 3704,
      "##гө": 3705,
      "##II": 3706,
      "ураты": 3707,
      "нэһилиэгэр": 3708,
      "былыр": 3709,
      "ССРС": 3710,
      "##үст": 3711,
      "##икт": 3712,
      "билим": 3713,
      "##ская": 3714,
      "30": 3715,
      "##уҥ": 3716,
      "##утун": 3717,
      "күөл": 3718,
      "үкс": 3719,
      "##ииллэр": 3720,
      "##итин": 3721,
      "##аастаах": 3722,
      "##элл": 3723,
      "Васильев": 3724,
      "Күн": 3725,
      "ыла": 3726,
      "оҕолорун": 3727,
      "##ыал": 3728,
      "##аннай": 3729,
      "хоту": 3730,
      "этт": 3731,
      "эрээри": 3732,
      "##һэ": 3733,
      "##аат": 3734,
      "сылдьыбыт": 3735,
      "##эхтээх": 3736,
      "киниг": 3737,
      "##атар": 3738,
      "уопс": 3739,
      "Дмит": 3740,
      "кыы": 3741,
      "##инник": 3742,
      "чинчий": 3743,
      "уор": 3744,
      "чилиэн": 3745,
      "##өрү": 3746,
      "бай": 3747,
      "тириэрдэр": 3748,
      "##отун": 3749,
      "Амм": 3750,
      "Ка": 3751,
      "бииргэ": 3752,
      "Кон": 3753,
      "##биттэрэ": 3754,
      "гынан": 3755,
      "##анас": 3756,
      "Сыл": 3757,
      "##осуд": 3758,
      "##эхтэринэ": 3759,
      "уста": 3760,
      "иккис": 3761,
      "нуучча": 3762,
      "киирс": 3763,
      "ыраах": 3764,
      "##аҕас": 3765,
      "санааларын": 3766,
      "##ээхтик": 3767,
      "##эрэн": 3768,
      "##стаах": 3769,
      "25": 3770,
      "Саҥ": 3771,
      "##ыйа": 3772,
      "быһыы": 3773,
      "таһым": 3774,
      "үтүкт": 3775,
      "Укра": 3776,
      "баҕ": 3777,
      "сыр": 3778,
      "##ег": 3779,
      "##опп": 3780,
      "##in": 3781,
      "##үүтэ": 3782,
      "##лад": 3783,
      "##осудар": 3784,
      "##тыттан": 3785,
      "күүстээх": 3786,
      "ким": 3787,
      "##нук": 3788,
      "Икки": 3789,
      "утары": 3790,
      "ыйыгар": 3791,
      "##ыллыб": 3792,
      "##тал": 3793,
      "##иятын": 3794,
      "өлөр": 3795,
      "Орто": 3796,
      "тимир": 3797,
      "улах": 3798,
      "ыры": 3799,
      "былыргыттан": 3800,
      "үлэлээбит": 3801,
      "дьонун": 3802,
      "##аайыстыб": 3803,
      "хос": 3804,
      "##ыларыгар": 3805,
      "##гас": 3806,
      "##ерн": 3807,
      "##еннай": 3808,
      "##үөлээх": 3809,
      "олохтоохтор": 3810,
      "Өрөспүүбүлүк": 3811,
      "##ган": 3812,
      "##уонн": 3813,
      "быһаары": 3814,
      "үлэтин": 3815,
      "тэҥэ": 3816,
      "##ытт": 3817,
      "##уруук": 3818,
      "Афанас": 3819,
      "су": 3820,
      "салгыы": 3821,
      "биэрэр": 3822,
      "Хаҥалас": 3823,
      "арыгы": 3824,
      "саҥар": 3825,
      "кэри": 3826,
      "##фор": 3827,
      "үөскэтэр": 3828,
      "төһө": 3829,
      "##айа": 3830,
      "##гэнник": 3831,
      "Бичик": 3832,
      "тылб": 3833,
      "##ҥҥы": 3834,
      "сата": 3835,
      "Ньур": 3836,
      "##еб": 3837,
      "##уура": 3838,
      "Былыргы": 3839,
      "Кытай": 3840,
      "##имп": 3841,
      "үтүө": 3842,
      "Улахан": 3843,
      "сү": 3844,
      "##ля": 3845,
      "өйдөрө": 3846,
      "2004": 3847,
      "##ахтарына": 3848,
      "190": 3849,
      "Анд": 3850,
      "үгэст": 3851,
      "аб": 3852,
      "##ээт": 3853,
      "##өлл": 3854,
      "бэч": 3855,
      "быстах": 3856,
      "##эрд": 3857,
      "устар": 3858,
      "##ээһин": 3859,
      "Нэһил": 3860,
      "ман": 3861,
      "мат": 3862,
      "хайаан": 3863,
      "Эр": 3864,
      "##уйд": 3865,
      "##алыыр": 3866,
      "хаан": 3867,
      "көмүск": 3868,
      "муус": 3869,
      "үлэни": 3870,
      "##ят": 3871,
      "##өд": 3872,
      "киһилии": 3873,
      "Александ": 3874,
      "үгүс": 3875,
      "##энэн": 3876,
      "##тата": 3877,
      "суолталаах": 3878,
      "туттун": 3879,
      "ид": 3880,
      "ис": 3881,
      "хор": 3882,
      "##оҕор": 3883,
      "##ахтара": 3884,
      "үтүөлээх": 3885,
      "##арь": 3886,
      "кэбиһ": 3887,
      "кэт": 3888,
      "кир": 3889,
      "билэн": 3890,
      "##окур": 3891,
      "олохтоох": 3892,
      "Инн": 3893,
      "Степ": 3894,
      "бас": 3895,
      "ий": 3896,
      "##эллэрин": 3897,
      "##угун": 3898,
      "##хт": 3899,
      "көҥ": 3900,
      "тахса": 3901,
      "Ку": 3902,
      "Туох": 3903,
      "тылынан": 3904,
      "##al": 3905,
      "туруор": 3906,
      "ирд": 3907,
      "Бал": 3908,
      "##зия": 3909,
      "Ону": 3910,
      "нэһилиэгин": 3911,
      "Гр": 3912,
      "##онг": 3913,
      "##аннаах": 3914,
      "Мэ": 3915,
      "кол": 3916,
      "##пааннь": 3917,
      "алдь": 3918,
      "көрүҥн": 3919,
      "түргэнник": 3920,
      "##аларыгар": 3921,
      "Степан": 3922,
      "сул": 3923,
      "##рит": 3924,
      "##уора": 3925,
      "Кыһ": 3926,
      "ун": 3927,
      "##ация": 3928,
      "былаас": 3929,
      "ыалдь": 3930,
      "##ну": 3931,
      "##үбүт": 3932,
      "буолуон": 3933,
      "##бытын": 3934,
      "сааһ": 3935,
      "##стр": 3936,
      "сылдьаллар": 3937,
      "мин": 3938,
      "##ar": 3939,
      "нар": 3940,
      "##ыллыбыта": 3941,
      "Алдан": 3942,
      "аҕыйах": 3943,
      "##ыылааҕа": 3944,
      "100": 3945,
      "##отт": 3946,
      "##ҥк": 3947,
      "быһаччы": 3948,
      "Ур": 3949,
      "буолууга": 3950,
      "кыаҕа": 3951,
      "айым": 3952,
      "##хоз": 3953,
      "биһиги": 3954,
      "##аатт": 3955,
      "Уус": 3956,
      "Кыра": 3957,
      "куруук": 3958,
      "уус": 3959,
      "Ге": 3960,
      "эконом": 3961,
      "сирэ": 3962,
      "олохторун": 3963,
      "дуу": 3964,
      "салгын": 3965,
      "хаһаайыстыб": 3966,
      "##циал": 3967,
      "бор": 3968,
      "сылл": 3969,
      "##һы": 3970,
      "сиб": 3971,
      "сист": 3972,
      "##иверс": 3973,
      "Николаевич": 3974,
      "21": 3975,
      "Сор": 3976,
      "сым": 3977,
      "сүүр": 3978,
      "ситиһи": 3979,
      "баара": 3980,
      "кур": 3981,
      "##атынан": 3982,
      "түбэ": 3983,
      "##өһүөл": 3984,
      "бэчээ": 3985,
      "##хай": 3986,
      "үгэс": 3987,
      "Аҕа": 3988,
      "Манна": 3989,
      "үлэҕэ": 3990,
      "кинилэр": 3991,
      "көрүҥ": 3992,
      "наада": 3993,
      "##ева": 3994,
      "##обуо": 3995,
      "сурун": 3996,
      "Онн": 3997,
      "##женкин": 3998,
      "батт": 3999,
      "олоҕор": 4000,
      "түһэр": 4001,
      "Каженкин": 4002,
      "устата": 4003,
      "государ": 4004,
      "##алаан": 4005,
      "киирбит": 4006,
      "төг": 4007,
      "22": 4008,
      "чуга": 4009,
      "##дааҕы": 4010,
      "##аҕы": 4011,
      "эрдэҕиттэн": 4012,
      "Өл": 4013,
      "##иллибит": 4014,
      "##стыы": 4015,
      "дак": 4016,
      "сыт": 4017,
      "##ылык": 4018,
      "##өрүн": 4019,
      "##авр": 4020,
      "##иверсит": 4021,
      "бэс": 4022,
      "см": 4023,
      "##ттон": 4024,
      "##ааччыта": 4025,
      "##ума": 4026,
      "ав": 4027,
      "сэриил": 4028,
      "аайы": 4029,
      "##са": 4030,
      "наук": 4031,
      "аас": 4032,
      "этэллэр": 4033,
      "тутулуктаах": 4034,
      "##рдьах": 4035,
      "##есс": 4036,
      "##ерг": 4037,
      "1980": 4038,
      "букатын": 4039,
      "Үр": 4040,
      "##үтүн": 4041,
      "Айылҕа": 4042,
      "биирдии": 4043,
      "##иэс": 4044,
      "өрүттээх": 4045,
      "##арда": 4046,
      "##элэргэ": 4047,
      "салайар": 4048,
      "Лен": 4049,
      "Ой": 4050,
      "##ic": 4051,
      "##эҕэр": 4052,
      "оҥост": 4053,
      "кэмэ": 4054,
      "хаһы": 4055,
      "кыахтанар": 4056,
      "Биир": 4057,
      "киһитэ": 4058,
      "Республик": 4059,
      "буоллар": 4060,
      "нэһилиэк": 4061,
      "сэриитин": 4062,
      "24": 4063,
      "##рист": 4064,
      "2012": 4065,
      "Гре": 4066,
      "гра": 4067,
      "##үтэ": 4068,
      "ыарахан": 4069,
      "Мих": 4070,
      "сот": 4071,
      "##ение": 4072,
      "Онон": 4073,
      "сок": 4074,
      "чуол": 4075,
      "үүн": 4076,
      "Сан": 4077,
      "##en": 4078,
      "##спит": 4079,
      "##ип": 4080,
      "тутулук": 4081,
      "Украина": 4082,
      "тыа": 4083,
      "таh": 4084,
      "итинник": 4085,
      "ылын": 4086,
      "##ственнай": 4087,
      "##la": 4088,
      "##окент": 4089,
      "уларыйан": 4090,
      "##ета": 4091,
      "##аҥҥа": 4092,
      "тэрилли": 4093,
      "сэм": 4094,
      "##бэтт": 4095,
      "үөрэнэн": 4096,
      "үөрэҕи": 4097,
      "бэйэлэрэ": 4098,
      "Иннокент": 4099,
      "бөһүөл": 4100,
      "##укка": 4101,
      "Васильевич": 4102,
      "улаханнык": 4103,
      "Чура": 4104,
      "тылыгар": 4105,
      "Таҥ": 4106,
      "ут": 4107,
      "##биттэр": 4108,
      "буолуо": 4109,
      "##отох": 4110,
      "##уйан": 4111,
      "##адаҥ": 4112,
      "Василий": 4113,
      "күр": 4114,
      "тымн": 4115,
      "##туур": 4116,
      "көһ": 4117,
      "Федор": 4118,
      "Ом": 4119,
      "Ма": 4120,
      "эст": 4121,
      "##тааҕы": 4122,
      "##анда": 4123,
      "##ччу": 4124,
      "киэҥник": 4125,
      "Кир": 4126,
      "Соҕ": 4127,
      "миэст": 4128,
      "чилиэнэ": 4129,
      "##лан": 4130,
      "2000": 4131,
      "литератур": 4132,
      "Ми": 4133,
      "ыам": 4134,
      "хампааннь": 4135,
      "холобур": 4136,
      "##ерд": 4137,
      "##ыма": 4138,
      "##ммыт": 4139,
      "Якутии": 4140,
      "Тыл": 4141,
      "Үчүгэй": 4142,
      "##ыылары": 4143,
      "23": 4144,
      "##емп": 4145,
      "##лаан": 4146,
      "189": 4147,
      "##ыытынан": 4148,
      "Бастакы": 4149,
      "##дик": 4150,
      "##кад": 4151,
      "урукку": 4152,
      "сайыннар": 4153,
      "На": 4154,
      "оонньуу": 4155,
      "##ья": 4156,
      "ойуу": 4157,
      "сорох": 4158,
      "Кинилэр": 4159,
      "сүөһү": 4160,
      "инстит": 4161,
      "Инд": 4162,
      "##ография": 4163,
      "Александр": 4164,
      "##сунньу": 4165,
      "##ааһа": 4166,
      "уларыт": 4167,
      "культ": 4168,
      "Михай": 4169,
      "##рий": 4170,
      "хаалар": 4171,
      "көрдөбүл": 4172,
      "##ээхтэр": 4173,
      "Бэй": 4174,
      "Элб": 4175,
      "##иилэрэ": 4176,
      "28": 4177,
      "Со": 4178,
      "толору": 4179,
      "Нэһилиэннь": 4180,
      "айымнь": 4181,
      "тириэрд": 4182,
      "тутан": 4183,
      "быһаарыллар": 4184,
      "##очуо": 4185,
      "муз": 4186,
      "этин": 4187,
      "##стан": 4188,
      "##ург": 4189,
      "оҥороллор": 4190,
      "Европ": 4191,
      "Мэҥэ": 4192,
      "истэҕинэ": 4193,
      "##эммитэ": 4194,
      "Илин": 4195,
      "##ирд": 4196,
      "сатыыр": 4197,
      "комп": 4198,
      "##ынньы": 4199,
      "##етын": 4200,
      "##иниттэн": 4201,
      "атыыл": 4202,
      "тол": 4203,
      "көмүс": 4204,
      "##ээччи": 4205,
      "ата": 4206,
      "үлэһит": 4207,
      "чуолк": 4208,
      "олорбут": 4209,
      "аны": 4210,
      "Маннык": 4211,
      "ма": 4212,
      "өйү": 4213,
      "тиийэн": 4214,
      "түбэһэр": 4215,
      "бэлиэтиир": 4216,
      "тыыннаах": 4217,
      "Пав": 4218,
      "доруо": 4219,
      "##ыйар": 4220,
      "көрөр": 4221,
      "##уруо": 4222,
      "ааттаах": 4223,
      "Гавр": 4224,
      "##es": 4225,
      "##хары": 4226,
      "##үүн": 4227,
      "##ттары": 4228,
      "##аһа": 4229,
      "кэргэнн": 4230,
      "##at": 4231,
      "##овскай": 4232,
      "##аһар": 4233,
      "##оҕу": 4234,
      "Иванович": 4235,
      "Сэбиэскэй": 4236,
      "тоҥ": 4237,
      "ыт": 4238,
      "тухары": 4239,
      "ситим": 4240,
      "оскуола": 4241,
      "биирдэстэрэ": 4242,
      "Соҕуруу": 4243,
      "##ээҕи": 4244,
      "2009": 4245,
      "кыһыл": 4246,
      "бэлиэтэ": 4247,
      "оруол": 4248,
      "Влад": 4249,
      "##пчы": 4250,
      "Дойд": 4251,
      "##гыһ": 4252,
      "##ийэн": 4253,
      "өрө": 4254,
      "##уутун": 4255,
      "Дьонун": 4256,
      "арыы": 4257,
      "анаан": 4258,
      "##ыд": 4259,
      "быһаарыы": 4260,
      "Николаев": 4261,
      "университ": 4262,
      "2013": 4263,
      "Саҥа": 4264,
      "ын": 4265,
      "##ора": 4266,
      "Чурапчы": 4267,
      "тех": 4268,
      "дьыал": 4269,
      "##айдар": 4270,
      "солбуй": 4271,
      "Амер": 4272,
      "өҥ": 4273,
      "##ский": 4274,
      "харыстыыр": 4275,
      "тыһыын": 4276,
      "Фран": 4277,
      "наад": 4278,
      "##бэтин": 4279,
      "##бакка": 4280,
      "##татын": 4281,
      "##ымм": 4282,
      "Бор": 4283,
      "чэ": 4284,
      "##уйа": 4285,
      "иһэн": 4286,
      "киэҥ": 4287,
      "Кыһыл": 4288,
      "кыыллар": 4289,
      "##үгэ": 4290,
      "Биһиги": 4291,
      "##ааh": 4292,
      "##өҕө": 4293,
      "##ээччилэр": 4294,
      "##ыннь": 4295,
      "инт": 4296,
      "##өдөҥ": 4297,
      "##ыыларын": 4298,
      "өйдөөх": 4299,
      "балаҕан": 4300,
      "##ред": 4301,
      "ылбыта": 4302,
      "##кэ": 4303,
      "көнн": 4304,
      "ааттыыллар": 4305,
      "##бин": 4306,
      "билии": 4307,
      "айылҕа": 4308,
      "көрдөрөр": 4309,
      "суб": 4310,
      "##оот": 4311,
      "кулун": 4312,
      "туст": 4313,
      "буолууну": 4314,
      "бэлэмн": 4315,
      "Үлэ": 4316,
      "##5а": 4317,
      "эрэр": 4318,
      "##ийэ": 4319,
      "27": 4320,
      "##тай": 4321,
      "парт": 4322,
      "2010": 4323,
      "РС": 4324,
      "орд": 4325,
      "оҕолоро": 4326,
      "26": 4327,
      "эн": 4328,
      "үөрэммит": 4329,
      "кутт": 4330,
      "Улуус": 4331,
      "холбоһ": 4332,
      "Киин": 4333,
      "##кадем": 4334,
      "50": 4335,
      "дуо": 4336,
      "сырд": 4337,
      "баст": 4338,
      "##ери": 4339,
      "улууһ": 4340,
      "учуутал": 4341,
      "Өрөспүүбүлүкэтин": 4342,
      "пед": 4343,
      "сим": 4344,
      "дьахт": 4345,
      "Холобур": 4346,
      "Сибиир": 4347,
      "Дан": 4348,
      "норуот": 4349,
      "Куо": 4350,
      "##hи": 4351,
      "итэҕэл": 4352,
      "##үүлэр": 4353,
      "билбэт": 4354,
      "санааҕа": 4355,
      "кылгас": 4356,
      "Ньурба": 4357,
      "##элэри": 4358,
      "дьадаҥ": 4359,
      "оҥорбот": 4360,
      "масс": 4361,
      "арыгыны": 4362,
      "##өллөр": 4363,
      "эл": 4364,
      "##еевич": 4365,
      "##лэн": 4366,
      "##гл": 4367,
      "##ерб": 4368,
      "урут": 4369,
      "полит": 4370,
      "Үрд": 4371,
      "Олимп": 4372,
      "улаатар": 4373,
      "из": 4374,
      "дьоннор": 4375,
      "##ааһына": 4376,
      "##арыстыб": 4377,
      "##спэт": 4378,
      "##циятын": 4379,
      "тахсыбыт": 4380,
      "үөрэнэр": 4381,
      "хаалбыт": 4382,
      "##уйар": 4383,
      "##этиннь": 4384,
      "история": 4385,
      "##битин": 4386,
      "тер": 4387,
      "##ига": 4388,
      "##уук": 4389,
      "2008": 4390,
      "Аһ": 4391,
      "2011": 4392,
      "бөлөхт": 4393,
      "байҕ": 4394,
      "оҕото": 4395,
      "##аларга": 4396,
      "Онно": 4397,
      "Кэлин": 4398,
      "##ман": 4399,
      "##ахпыт": 4400,
      "##ения": 4401,
      "туран": 4402,
      "үөрэтэн": 4403,
      "уобалаһын": 4404,
      "##гэт": 4405,
      "туһал": 4406,
      "Сүр": 4407,
      "гына": 4408,
      "өйдөбүллэр": 4409,
      "күүһүр": 4410,
      "кыттыылааҕа": 4411,
      "##эрилли": 4412,
      "уола": 4413,
      "диэкки": 4414,
      "бат": 4415,
      "##икаҕа": 4416,
      "Гаврил": 4417,
      "ас": 4418,
      "##лээх": 4419,
      "сыыһ": 4420,
      "Хотугу": 4421,
      "сөб": 4422,
      "##лович": 4423,
      "Үрүҥ": 4424,
      "ост": 4425,
      "##убут": 4426,
      "ха": 4427,
      "ытык": 4428,
      "Ир": 4429,
      "бигэр": 4430,
      "те": 4431,
      "##иҥ": 4432,
      "##даарыстыб": 4433,
      "##олоох": 4434,
      "Бары": 4435,
      "сатаан": 4436,
      "атаах": 4437,
      "сөпт": 4438,
      "тиийэр": 4439,
      "үөрэпп": 4440,
      "үрдүгэр": 4441,
      "кв": 4442,
      "##ко": 4443,
      "кытаан": 4444,
      "айылҕ": 4445,
      "Миха": 4446,
      "спорт": 4447,
      "бөдөҥ": 4448,
      "эрдэ": 4449,
      "систем": 4450,
      "эбэ": 4451,
      "буолла": 4452,
      "##аһы": 4453,
      "эбиллэн": 4454,
      "охсуһ": 4455,
      "тыһыынча": 4456,
      "иһэллэр": 4457,
      "биллибэт": 4458,
      "аймах": 4459,
      "др": 4460,
      "Үөр": 4461,
      "үүнэ": 4462,
      "##уурдаах": 4463,
      "хаай": 4464,
      "Михаил": 4465,
      "##ическэй": 4466,
      "биэрэн": 4467,
      "##циональнай": 4468,
      "кэһ": 4469,
      "##атан": 4470,
      "##ульт": 4471,
      "слов": 4472,
      "##илэри": 4473,
      "туһугар": 4474,
      "халанда": 4475,
      "кутун": 4476,
      "Нов": 4477,
      "төб": 4478,
      "тойон": 4479,
      "хой": 4480,
      "буолуута": 4481,
      "үөрэхтэрэ": 4482,
      "иҥэн": 4483,
      "дьаһ": 4484,
      "##аабат": 4485,
      "булан": 4486,
      "Нуучч": 4487,
      "##ҕэ": 4488,
      "хаалан": 4489,
      "көҥүл": 4490,
      "##тат": 4491,
      "Владимир": 4492,
      "Бай": 4493,
      "нам": 4494,
      "эй": 4495,
      "Өлүөн": 4496,
      "тахсан": 4497,
      "табыллар": 4498,
      "Арҕаа": 4499,
      "атырдьах": 4500,
      "Элбэх": 4501,
      "Аб": 4502,
      "Ман": 4503,
      "##аныы": 4504,
      "##оман": 4505,
      "Амма": 4506,
      "Куһаҕ": 4507,
      "Сэр": 4508,
      "очч": 4509,
      "##пит": 4510,
      "##оh": 4511,
      "билиҥҥи": 4512,
      "##онгол": 4513,
      "ычч": 4514,
      "##ыш": 4515,
      "##иин": 4516,
      "##иэтин": 4517,
      "##был": 4518,
      "##тынньы": 4519,
      "##убат": 4520,
      "олорон": 4521,
      "Хал": 4522,
      "##үттэр": 4523,
      "халлаан": 4524,
      "улууһугар": 4525,
      "сүт": 4526,
      "үһү": 4527,
      "ортот": 4528,
      "Сун": 4529,
      "уот": 4530,
      "##бэккэ": 4531,
      "тэрилтэ": 4532,
      "тохтот": 4533,
      "бол": 4534,
      "##ынн": 4535,
      "арх": 4536,
      "кииниттэн": 4537,
      "олоҕур": 4538,
      "Дьокуускайга": 4539,
      "##очник": 4540,
      "##улар": 4541,
      "##аһан": 4542,
      "төрөппүттэр": 4543,
      "туһаны": 4544,
      "Хас": 4545,
      "##еж": 4546,
      "##ки": 4547,
      "дорҕооннор": 4548,
      "киирбитэ": 4549,
      "үлэлии": 4550,
      "балык": 4551,
      "кл": 4552,
      "сов": 4553,
      "##үүгэ": 4554,
      "Сал": 4555,
      "тум": 4556,
      "##аатта": 4557,
      "дакааст": 4558,
      "##ардастыы": 4559,
      "алб": 4560,
      "наҕар": 4561,
      "##иини": 4562,
      "##алия": 4563,
      "40": 4564,
      "Поп": 4565,
      "төрд": 4566,
      "сэмэй": 4567,
      "аҕа": 4568,
      "дом": 4569,
      "дииллэр": 4570,
      "##уба": 4571,
      "төнн": 4572,
      "кытыл": 4573,
      "сиинин": 4574,
      "аатын": 4575,
      "##эh": 4576,
      "олоҥ": 4577,
      "сөптөөх": 4578,
      "300": 4579,
      "мед": 4580,
      "##иль": 4581,
      "аатыр": 4582,
      "##аш": 4583,
      "ырааст": 4584,
      "##устар": 4585,
      "үйэҕэ": 4586,
      "Төрө": 4587,
      "мэтэ": 4588,
      "##ги": 4589,
      "##is": 4590,
      "илик": 4591,
      "сэбиэскэй": 4592,
      "хатыл": 4593,
      "өһ": 4594,
      "##ааҕынан": 4595,
      "##илэрэ": 4596,
      "эрэй": 4597,
      "чуолкайд": 4598,
      "доруобуй": 4599,
      "Үрдүк": 4600,
      "Уһун": 4601,
      "бии": 4602,
      "##игор": 4603,
      "этэр": 4604,
      "for": 4605,
      "билин": 4606,
      "ситэ": 4607,
      "##олю": 4608,
      "##эҕир": 4609,
      "хайыс": 4610,
      "Нэһилиэнньэтин": 4611,
      "туор": 4612,
      "Үл": 4613,
      "##ыбат": 4614,
      "букк": 4615,
      "ньым": 4616,
      "тиһ": 4617,
      "өс": 4618,
      "##таар": 4619,
      "этилэр": 4620,
      "сайдыытын": 4621,
      "уустара": 4622,
      "##ся": 4623,
      "өттө": 4624,
      "31": 4625,
      "##онт": 4626,
      "аҥы": 4627,
      "бүтэрэн": 4628,
      "##сун": 4629,
      "быһыыны": 4630,
      "элбээн": 4631,
      "2006": 4632,
      "хааллар": 4633,
      "Грегор": 4634,
      "Сой": 4635,
      "быы": 4636,
      "кэмнэргэ": 4637,
      "##иция": 4638,
      "Айыыны": 4639,
      "Дмитри": 4640,
      "оһ": 4641,
      "##mu": 4642,
      "түөр": 4643,
      "##эннээх": 4644,
      "мун": 4645,
      "##иттэрин": 4646,
      "хамсааһын": 4647,
      "##улуусп": 4648,
      "##оттор": 4649,
      "сотору": 4650,
      "бос": 4651,
      "хан": 4652,
      "##рам": 4653,
      "##ааҕар": 4654,
      "күүскэ": 4655,
      "кинигэ": 4656,
      "эбии": 4657,
      "наҕараад": 4658,
      "ахт": 4659,
      "төл": 4660,
      "оҥорорун": 4661,
      "кинини": 4662,
      "км²": 4663,
      "республик": 4664,
      "судаарыстыб": 4665,
      "мааст": 4666,
      "##ный": 4667,
      "##ааска": 4668,
      "##лараа": 4669,
      "бэчээтт": 4670,
      "Таҥара": 4671,
      "словарь": 4672,
      "Ав": 4673,
      "От": 4674,
      "мл": 4675,
      "##гун": 4676,
      "##үөт": 4677,
      "көн": 4678,
      "олороллор": 4679,
      "аныгы": 4680,
      "188": 4681,
      "ге": 4682,
      "##арм": 4683,
      "##алы": 4684,
      "##ардаах": 4685,
      "Якутская": 4686,
      "кыахтан": 4687,
      "Грегориан": 4688,
      "##ыттарын": 4689,
      "харч": 4690,
      "соҕотох": 4691,
      "тохсунньу": 4692,
      "хонуктаах": 4693,
      "көмөлөһ": 4694,
      "Хара": 4695,
      "ыста": 4696,
      "##ея": 4697,
      "##ру": 4698,
      "##he": 4699,
      "оҥорума": 4700,
      "сайдыыны": 4701,
      "өттүнэн": 4702,
      "##куйд": 4703,
      "эксп": 4704,
      "бэрээдэ": 4705,
      "Атын": 4706,
      "Кор": 4707,
      "боруо": 4708,
      "билэллэр": 4709,
      "тулуурдаах": 4710,
      "учуутала": 4711,
      "Нам": 4712,
      "илдь": 4713,
      "үлэһитэ": 4714,
      "##этинньи": 4715,
      "халандаарыгар": 4716,
      "##угунан": 4717,
      "док": 4718,
      "кыыл": 4719,
      "эмт": 4720,
      "справ": 4721,
      "уустук": 4722,
      "Хар": 4723,
      "##үлэр": 4724,
      "2005": 4725,
      "##дел": 4726,
      "##би": 4727,
      "төрүттээх": 4728,
      "29": 4729,
      "##уос": 4730,
      "туйг": 4731,
      "##иэһ": 4732,
      "бүтүө": 4733,
      "холбуу": 4734,
      "##үөхт": 4735,
      "тупсар": 4736,
      "##циалист": 4737,
      "сибээ": 4738,
      "сулуусп": 4739,
      "##оо": 4740,
      "тахсыбыта": 4741,
      "үрдүнэн": 4742,
      "оскуолатыгар": 4743,
      "Григор": 4744,
      "Дж": 4745,
      "##иэкт": 4746,
      "уран": 4747,
      "Сирин": 4748,
      "итэҕэй": 4749,
      "Кут": 4750,
      "##старын": 4751,
      "сиэри": 4752,
      "##ников": 4753,
      "Москва": 4754,
      "сүү": 4755,
      "физ": 4756,
      "хары": 4757,
      "##улаах": 4758,
      "барыларын": 4759,
      "Дьокуускайдааҕы": 4760,
      "ыарыы": 4761,
      "олоҕу": 4762,
      "кээм": 4763,
      "оройуонун": 4764,
      "толкуйд": 4765,
      "Мин": 4766,
      "сон": 4767,
      "##оох": 4768,
      "артыы": 4769,
      "пред": 4770,
      "суруйбут": 4771,
      "ылбыт": 4772,
      "сурунаал": 4773,
      "утар": 4774,
      "##онов": 4775,
      "ахсынньы": 4776,
      "##үүллэр": 4777,
      "Кул": 4778,
      "боб": 4779,
      "канд": 4780,
      "сылдьыбыта": 4781,
      "##ттарга": 4782,
      "үлэлээн": 4783,
      "Еф": 4784,
      "Эн": 4785,
      "сиинэ": 4786,
      "науч": 4787,
      "эйг": 4788,
      "##ици": 4789,
      "##элэригэр": 4790,
      "быһыыларын": 4791,
      "дириҥ": 4792,
      "##us": 4793,
      "##ная": 4794,
      "кум": 4795,
      "салаата": 4796,
      "аһылык": 4797,
      "Петрович": 4798,
      "справочник": 4799,
      "хап": 4800,
      "##юр": 4801,
      "##этэн": 4802,
      "дьахтар": 4803,
      "тылдь": 4804,
      "улаатын": 4805,
      "ахсааннаах": 4806,
      "##үһүн": 4807,
      "дириҥник": 4808,
      "Сунтаар": 4809,
      "үлэтэ": 4810,
      "көрүҥэ": 4811,
      "кыыс": 4812,
      "##эккэ": 4813,
      "##ват": 4814,
      "##ыыра": 4815,
      "тылбыт": 4816,
      "##ийскай": 4817,
      "бүтэрбитэ": 4818,
      "Эдэр": 4819,
      "иэнэ": 4820,
      "##баан": 4821,
      "##өк": 4822,
      "сайдыыта": 4823,
      "олоҕо": 4824,
      "ка": 4825,
      "таас": 4826,
      "билэ": 4827,
      "##ослав": 4828,
      "быh": 4829,
      "баа": 4830,
      "кор": 4831,
      "уҥ": 4832,
      "фил": 4833,
      "салҕ": 4834,
      "2002": 4835,
      "1941": 4836,
      "во": 4837,
      "го": 4838,
      "##онд": 4839,
      "тыллара": 4840,
      "сайдыылаах": 4841,
      "аҥардастыы": 4842,
      "Олохто": 4843,
      "##mula": 4844,
      "Эл": 4845,
      "Оҕону": 4846,
      "Эт": 4847,
      "кар": 4848,
      "##ют": 4849,
      "##ньа": 4850,
      "##ыыллара": 4851,
      "##оҕуна": 4852,
      "туруктаах": 4853,
      "##уутугар": 4854,
      "саҕана": 4855,
      "##ээхтэрэ": 4856,
      "Азия": 4857,
      "##исс": 4858,
      "##быттара": 4859,
      "##ытынан": 4860,
      "##иэк": 4861,
      "##инист": 4862,
      "быһыылар": 4863,
      "уопсай": 4864,
      "чэпч": 4865,
      "прав": 4866,
      "сыннь": 4867,
      "##ждан": 4868,
      "##аров": 4869,
      "кэлбит": 4870,
      "не": 4871,
      "ти": 4872,
      "онон": 4873,
      "##угулуу": 4874,
      "көтөрд": 4875,
      "formula": 4876,
      "дол": 4877,
      "##бай": 4878,
      "##һүс": 4879,
      "##ерт": 4880,
      "дьахталлар": 4881,
      "Өлүөнэ": 4882,
      "хост": 4883,
      "##ыга": 4884,
      "##эһэ": 4885,
      "оҥорд": 4886,
      "киhи": 4887,
      "быра": 4888,
      "Афр": 4889,
      "Сорох": 4890,
      "тэн": 4891,
      "##ской": 4892,
      "##ааста": 4893,
      "1994": 4894,
      "түмүгэр": 4895,
      "Тур": 4896,
      "##ылары": 4897,
      "сэбиэ": 4898,
      "кандид": 4899,
      "Сав": 4900,
      "кэрэ": 4901,
      "ханна": 4902,
      "чах": 4903,
      "##тый": 4904,
      "үчүгэйдик": 4905,
      "Айылҕ": 4906,
      "сыыйа": 4907,
      "Иванов": 4908,
      "суоҕ": 4909,
      "##үүтүн": 4910,
      "ирдэнэр": 4911,
      "уокур": 4912,
      "##нары": 4913,
      "##оммут": 4914,
      "##итель": 4915,
      "көрө": 4916,
      "1993": 4917,
      "##емпион": 4918,
      "сылдьыб": 4919,
      "##уллубута": 4920,
      "сыһыаннаах": 4921,
      "000": 4922,
      "76": 4923,
      "Гор": 4924,
      "##ож": 4925,
      "##лор": 4926,
      "##яр": 4927,
      "##ерия": 4928,
      "проф": 4929,
      "ырыт": 4930,
      "саҕалаан": 4931,
      "##дисс": 4932,
      "кил": 4933,
      "манна": 4934,
      "##али": 4935,
      "##раан": 4936,
      "##эһэн": 4937,
      "##имов": 4938,
      "##тарга": 4939,
      "туһанар": 4940,
      "сайдар": 4941,
      "буолбатах": 4942,
      "оннук": 4943,
      "Аҕ": 4944,
      "Сп": 4945,
      "##ныыр": 4946,
      "##быттар": 4947,
      "##унай": 4948,
      "##этинэн": 4949,
      "1942": 4950,
      "колхоз": 4951,
      "хаһыат": 4952,
      "Европа": 4953,
      "быһыылара": 4954,
      "буолбуттара": 4955,
      "харчы": 4956,
      "Прок": 4957,
      "II": 4958,
      "Сов": 4959,
      "суу": 4960,
      "тап": 4961,
      "##дар": 4962,
      "Олус": 4963,
      "сурук": 4964,
      "##le": 4965,
      "##инов": 4966,
      "2014": 4967,
      "оскуолатын": 4968,
      "сыллардаах": 4969,
      "биэрэ": 4970,
      "Иккис": 4971,
      "хаҥ": 4972,
      "уордь": 4973,
      "атт": 4974,
      "##ro": 4975,
      "##ского": 4976,
      "##раз": 4977,
      "##ивнай": 4978,
      "оп": 4979,
      "тр": 4980,
      "майгылаах": 4981,
      "үүнэр": 4982,
      "хайысх": 4983,
      "или": 4984,
      "##рей": 4985,
      "##лары": 4986,
      "##илэригэр": 4987,
      "1992": 4988,
      "ааспыт": 4989,
      "##очуоттаах": 4990,
      "атах": 4991,
      "сэл": 4992,
      "##эһэр": 4993,
      "1945": 4994,
      "өйдөбүллээх": 4995,
      "##өҕөр": 4996,
      "##агог": 4997,
      "##эст": 4998,
      "барбыт": 4999,
      "күнн": 5000,
      "##аабыттара": 5001,
      "күүһэ": 5002,
      "Мария": 5003,
      "Куһаҕан": 5004,
      "Попов": 5005,
      "мэй": 5006,
      "хаб": 5007,
      "өҥн": 5008,
      "туһата": 5009,
      "оҥорорго": 5010,
      "учуо": 5011,
      "##өтүнэн": 5012,
      "сыанал": 5013,
      "буолуохтаах": 5014,
      "наука": 5015,
      "Америка": 5016,
      "Кл": 5017,
      "СӨ": 5018,
      "имп": 5019,
      "тоҕо": 5020,
      "чемпион": 5021,
      "ыыпп": 5022,
      "##омп": 5023,
      "үөһ": 5024,
      "про": 5025,
      "хаһаайыстыбатын": 5026,
      "##еч": 5027,
      "##ааҥҥа": 5028,
      "сылгы": 5029,
      "сири": 5030,
      "анал": 5031,
      "аҕал": 5032,
      "нууччалар": 5033,
      "диир": 5034,
      "##ыахха": 5035,
      "тылларын": 5036,
      "##аабакка": 5037,
      "нэһилиэннь": 5038,
      "Франция": 5039,
      "түөрт": 5040,
      "туйгуна": 5041,
      "80": 5042,
      "аст": 5043,
      "##ония": 5044,
      "##ээбэт": 5045,
      "##ппит": 5046,
      "##уохха": 5047,
      "учили": 5048,
      "##сен": 5049,
      "##ыларынан": 5050,
      "##рад": 5051,
      "сахаларга": 5052,
      "35": 5053,
      "60": 5054,
      "бара": 5055,
      "##лоп": 5056,
      "##96": 5057,
      "##утааҕы": 5058,
      "үөрүй": 5059,
      "Алексей": 5060,
      "майгын": 5061,
      "ситиһэр": 5062,
      "музык": 5063,
      "олоҥх": 5064,
      "Үрдүкү": 5065,
      "для": 5066,
      "сэ": 5067,
      "##ааҥ": 5068,
      "##йдар": 5069,
      "бэйэтигэр": 5070,
      "Оҕолор": 5071,
      "##иилэрин": 5072,
      "иҥэр": 5073,
      "##үйүөн": 5074,
      "хоһооннор": 5075,
      "Данил": 5076,
      "Таатта": 5077,
      "тас": 5078,
      "якут": 5079,
      "##it": 5080,
      "##атыы": 5081,
      "##емат": 5082,
      "##████": 5083,
      "үтүктэн": 5084,
      "массыын": 5085,
      "Төрөпп": 5086,
      "хаар": 5087,
      "##ух": 5088,
      "##хө": 5089,
      "##уль": 5090,
      "##уллубат": 5091,
      "буоллахтарына": 5092,
      "Кар": 5093,
      "Пре": 5094,
      "ыһ": 5095,
      "дьэ": 5096,
      "##ыйан": 5097,
      "Арай": 5098,
      "тарҕаммыт": 5099,
      "анн": 5100,
      "иh": 5101,
      "##аана": 5102,
      "##алларыгар": 5103,
      "оҕолору": 5104,
      "1943": 5105,
      "##астыб": 5106,
      "олохторугар": 5107,
      "бэрт": 5108,
      "культур": 5109,
      "улаатыннар": 5110,
      "##луу": 5111,
      "сиэр": 5112,
      "дойдутугар": 5113,
      "үөрэтиигэ": 5114,
      "балаһ": 5115,
      "уһуннук": 5116,
      "этиини": 5117,
      "дьадаҥы": 5118,
      "сэбиэдисс": 5119,
      "##утт": 5120,
      "##гий": 5121,
      "өрт": 5122,
      "ылл": 5123,
      "сыллардаахха": 5124,
      "байы": 5125,
      "маст": 5126,
      "##кай": 5127,
      "тутуу": 5128,
      "##иилээх": 5129,
      "обще": 5130,
      "##эрдээх": 5131,
      "Прокоп": 5132,
      "XV": 5133,
      "##енер": 5134,
      "быһааран": 5135,
      "сити": 5136,
      "иитии": 5137,
      "оннугар": 5138,
      "##рдар": 5139,
      "##эһин": 5140,
      "##спублика": 5141,
      "Тим": 5142,
      "Эм": 5143,
      "оҥороро": 5144,
      "Кол": 5145,
      "саа": 5146,
      "көҕ": 5147,
      "алтынньы": 5148,
      "таҥараларын": 5149,
      "сии": 5150,
      "саастаах": 5151,
      "##атык": 5152,
      "##наҕына": 5153,
      "иитиигэ": 5154,
      "сатааһын": 5155,
      "хамнаһы": 5156,
      "маҥнайгы": 5157,
      "ном": 5158,
      "##нарын": 5159,
      "##юз": 5160,
      "##мун": 5161,
      "##ойобуо": 5162,
      "сыллаахтан": 5163,
      "2003": 5164,
      "Михайлович": 5165,
      "техн": 5166,
      "##аап": 5167,
      "баарын": 5168,
      "хамсан": 5169,
      "көрсүө": 5170,
      "сам": 5171,
      "##hа": 5172,
      "##атр": 5173,
      "өйдө": 5174,
      "күүст": 5175,
      "##ьевна": 5176,
      "сатыыллар": 5177,
      "буорт": 5178,
      "олохтоохторун": 5179,
      "Очч": 5180,
      "##ээҕин": 5181,
      "табыллыб": 5182,
      "ахсааннара": 5183,
      "байҕал": 5184,
      "маны": 5185,
      "##үб": 5186,
      "187": 5187,
      "Алексеев": 5188,
      "##үллүбүт": 5189,
      "##эдээт": 5190,
      "Дмитрий": 5191,
      "наҕараадал": 5192,
      "дии": 5193,
      "##лен": 5194,
      "##эг": 5195,
      "##ларыгар": 5196,
      "##эһии": 5197,
      "##ктор": 5198,
      "улаапп": 5199,
      "суоҕа": 5200,
      "таhым": 5201,
      "Ханнык": 5202,
      "ок": 5203,
      "сил": 5204,
      "##үөм": 5205,
      "суруйар": 5206,
      "бүтэрбит": 5207,
      "таһаарар": 5208,
      "дьарыктан": 5209,
      "Кө": 5210,
      "Сур": 5211,
      "Уол": 5212,
      "та": 5213,
      "##мен": 5214,
      "##49": 5215,
      "##эртэн": 5216,
      "##орм": 5217,
      "##иэтт": 5218,
      "дойдуну": 5219,
      "Ники": 5220,
      "тыллары": 5221,
      "өлбүтэ": 5222,
      "сыллааҕы": 5223,
      "педагог": 5224,
      "улуус": 5225,
      "##тыыр": 5226,
      "##тарыгар": 5227,
      "##рем": 5228,
      "##ари": 5229,
      "##айыҥҥы": 5230,
      "##ота": 5231,
      "##өҕүнэ": 5232,
      "Си": 5233,
      "муора": 5234,
      "билбэтт": 5235,
      "эдэрдэр": 5236,
      "бөлөхтөрө": 5237,
      "Бол": 5238,
      "мэ": 5239,
      "##ээтэ": 5240,
      "##эриэ": 5241,
      "##үннь": 5242,
      "2001": 5243,
      "күүһү": 5244,
      "түмс": 5245,
      "##эттэ": 5246,
      "туһанан": 5247,
      "##инээҕи": 5248,
      "##иэтигэр": 5249,
      "үөрэнэ": 5250,
      "түһэн": 5251,
      "дьиэтэ": 5252,
      "##иф": 5253,
      "##ыыларыгар": 5254,
      "өрү": 5255,
      "норуотун": 5256,
      "тел": 5257,
      "##as": 5258,
      "көрүү": 5259,
      "сайдыбыт": 5260,
      "##үттэрэ": 5261,
      "хотугулуу": 5262,
      "дойдуларга": 5263,
      "кэриэтэ": 5264,
      "таhымнаах": 5265,
      "##ларга": 5266,
      "Ийэ": 5267,
      "##ҕас": 5268,
      "сис": 5269,
      "бырааб": 5270,
      "нууччалыы": 5271,
      "туһаналлар": 5272,
      "32": 5273,
      "##өс": 5274,
      "##ных": 5275,
      "бэриллэр": 5276,
      "буруй": 5277,
      "сырытт": 5278,
      "түбэспэт": 5279,
      "чахчы": 5280,
      "Хор": 5281,
      "ичч": 5282,
      "сар": 5283,
      "олунньу": 5284,
      "##аннара": 5285,
      "туту": 5286,
      "сабыд": 5287,
      "Жир": 5288,
      "уҥа": 5289,
      "##шев": 5290,
      "##эйэн": 5291,
      "оҕотун": 5292,
      "186": 5293,
      "кэпсэ": 5294,
      "билиини": 5295,
      "чугас": 5296,
      "##стант": 5297,
      "үөрэхтээхтэрэ": 5298,
      "кытары": 5299,
      "үгүст": 5300,
      "санааларыгар": 5301,
      "Андре": 5302,
      "маарын": 5303,
      "эһ": 5304,
      "##кот": 5305,
      "##ion": 5306,
      "##ҥнээх": 5307,
      "##иннэр": 5308,
      "Хоту": 5309,
      "Сэрии": 5310,
      "Ис": 5311,
      "оттон": 5312,
      "барбыта": 5313,
      "##осов": 5314,
      "биэри": 5315,
      "Герм": 5316,
      "Герой": 5317,
      "киирсэр": 5318,
      "Олимпия": 5319,
      "Бул": 5320,
      "Серг": 5321,
      "##еф": 5322,
      "##ость": 5323,
      "Иркут": 5324,
      "көтөрдөр": 5325,
      "Роман": 5326,
      "оф": 5327,
      "##йаҕа": 5328,
      "##иэп": 5329,
      "##асс": 5330,
      "##етыгар": 5331,
      "сэриигэ": 5332,
      "бэйэлэригэр": 5333,
      "##дээх": 5334,
      "быһыыта": 5335,
      "##устр": 5336,
      "буолбакка": 5337,
      "1944": 5338,
      "отдел": 5339,
      "рег": 5340,
      "##ерация": 5341,
      "Констант": 5342,
      "XX": 5343,
      "Сл": 5344,
      "##зид": 5345,
      "иһэрин": 5346,
      "##эйдээх": 5347,
      "Савв": 5348,
      "Киһ": 5349,
      "Яков": 5350,
      "##ыытыттан": 5351,
      "Дьопп": 5352,
      "тиийэ": 5353,
      "##үүлээх": 5354,
      "ынах": 5355,
      "Түм": 5356,
      "быыһ": 5357,
      "##нан": 5358,
      "##хан": 5359,
      "сайдыытыгар": 5360,
      "##өтө": 5361,
      "##үүтүгэр": 5362,
      "тэриллибитэ": 5363,
      "кытаанах": 5364,
      "##ной": 5365,
      "куһаҕаҥҥа": 5366,
      "уопсастыб": 5367,
      "Олохтоохтор": 5368,
      "Каз": 5369,
      "##аларынан": 5370,
      "дире": 5371,
      "##ытыгар": 5372,
      "саныыр": 5373,
      "##еволю": 5374,
      "##ааччыларын": 5375,
      "нач": 5376,
      "баһылаан": 5377,
      "Дойду": 5378,
      "научнай": 5379,
      "Кыы": 5380,
      "бойобуо": 5381,
      "тиэр": 5382,
      "##гин": 5383,
      "үлэтигэр": 5384,
      "өйгө": 5385,
      "##ссэдээт": 5386,
      "саҕалан": 5387,
      "уобалас": 5388,
      "өҥнөөх": 5389,
      "Кра": 5390,
      "кыыһ": 5391,
      "отт": 5392,
      "##ня": 5393,
      "##ФСР": 5394,
      "##иитинэн": 5395,
      "##истар": 5396,
      "биллиилээх": 5397,
      "Ый": 5398,
      "ыкс": 5399,
      "##куо": 5400,
      "##ша": 5401,
      "##анов": 5402,
      "##стара": 5403,
      "##едия": 5404,
      "Социалист": 5405,
      "РСФСР": 5406,
      "үөһээ": 5407,
      "кү": 5408,
      "пер": 5409,
      "##ыыттан": 5410,
      "сааһыгар": 5411,
      "##эҕириитин": 5412,
      "балаһыан": 5413,
      "Кур": 5414,
      "шк": 5415,
      "##туура": 5416,
      "##иҥҥи": 5417,
      "Республикатын": 5418,
      "Презид": 5419,
      "70": 5420,
      "##цик": 5421,
      "дир": 5422,
      "кист": 5423,
      "тохто": 5424,
      "тылбаас": 5425,
      "батыһ": 5426,
      "босх": 5427,
      "академ": 5428,
      "лапп": 5429,
      "##уохтаах": 5430,
      "ыраас": 5431,
      "сырдык": 5432,
      "Ат": 5433,
      "Пол": 5434,
      "##элиир": 5435,
      "ыйа": 5436,
      "олорб": 5437,
      "2015": 5438,
      "1990": 5439,
      "##ади": 5440,
      "илдьэ": 5441,
      "Бр": 5442,
      "Боот": 5443,
      "РФ": 5444,
      "Христ": 5445,
      "күөх": 5446,
      "сред": 5447,
      "##ного": 5448,
      "##вер": 5449,
      "##om": 5450,
      "##ɵр": 5451,
      "##ные": 5452,
      "##отооҕу": 5453,
      "саҥарар": 5454,
      "Жирков": 5455,
      "Иркутскай": 5456,
      "Ад": 5457,
      "Тойон": 5458,
      "муҥ": 5459,
      "##илэ": 5460,
      "##атааҕы": 5461,
      "туh": 5462,
      "былдь": 5463,
      "##оһу": 5464,
      "биэрии": 5465,
      "өттүн": 5466,
      "национальнай": 5467,
      "Куорат": 5468,
      "професс": 5469,
      "Германия": 5470,
      "Бар": 5471,
      "тай": 5472,
      "##уона": 5473,
      "##эһи": 5474,
      "көмөтүнэн": 5475,
      "сыал": 5476,
      "тутуһар": 5477,
      "үһүс": 5478,
      "киһиттэн": 5479,
      "элбиир": 5480,
      "олору": 5481,
      "##уоруй": 5482,
      "саҕаланар": 5483,
      "1938": 5484,
      "##птээх": 5485,
      "үүнээй": 5486,
      "түө": 5487,
      "тупп": 5488,
      "салал": 5489,
      "бэлиэ": 5490,
      "##циклоп": 5491,
      "лат": 5492,
      "##элээн": 5493,
      "суолтата": 5494,
      "2016": 5495,
      "бүтүн": 5496,
      "өттүттэн": 5497,
      "ойуул": 5498,
      "де": 5499,
      "сүһ": 5500,
      "өст": 5501,
      "##пут": 5502,
      "##алдь": 5503,
      "арм": 5504,
      "иһинэн": 5505,
      "##ыырга": 5506,
      "өйдөрүн": 5507,
      "муу": 5508,
      "мет": 5509,
      "сэтинньи": 5510,
      "Үг": 5511,
      "##лам": 5512,
      "##бын": 5513,
      "##умм": 5514,
      "көмө": 5515,
      "харыстааһын": 5516,
      "Геор": 5517,
      "хаҥас": 5518,
      "түг": 5519,
      "эрч": 5520,
      "иһит": 5521,
      "##обут": 5522,
      "кэби": 5523,
      "бэрэссэдээт": 5524,
      "салаатын": 5525,
      "##этии": 5526,
      "өрөспүүбүлүк": 5527,
      "өрүст": 5528,
      "сэрэхтээх": 5529,
      "Россияҕа": 5530,
      "стр": 5531,
      "##уунускай": 5532,
      "Ыр": 5533,
      "ам": 5534,
      "түүр": 5535,
      "тэлл": 5536,
      "##өрүгэр": 5537,
      "үөскэпп": 5538,
      "күүс": 5539,
      "истор": 5540,
      "1995": 5541,
      "аатырбыт": 5542,
      "Вал": 5543,
      "Хам": 5544,
      "икк": 5545,
      "ууга": 5546,
      "чыы": 5547,
      "##ьб": 5548,
      "тута": 5549,
      "Араас": 5550,
      "кыргы": 5551,
      "элбэхтэр": 5552,
      "##ограмм": 5553,
      "Тимоф": 5554,
      "лаппа": 5555,
      "сааст": 5556,
      "##өчч": 5557,
      "таһыгар": 5558,
      "бөһүөлэк": 5559,
      "сэлиэннь": 5560,
      "IS": 5561,
      "Сайд": 5562,
      "##окк": 5563,
      "##сом": 5564,
      "##цев": 5565,
      "түсп": 5566,
      "##ааһыр": 5567,
      "киирэллэр": 5568,
      "аһылы": 5569,
      "хотугу": 5570,
      "ситимн": 5571,
      "бастыҥ": 5572,
      "Константин": 5573,
      "Кэр": 5574,
      "св": 5575,
      "##гыл": 5576,
      "аҕата": 5577,
      "1991": 5578,
      "коммун": 5579,
      "боруоб": 5580,
      "бочуоттаах": 5581,
      "худ": 5582,
      "##el": 5583,
      "##бах": 5584,
      "куй": 5585,
      "учеб": 5586,
      "майгы": 5587,
      "олохсуйбут": 5588,
      "кэриҥэ": 5589,
      "ситиһиил": 5590,
      "сокуон": 5591,
      "Пет": 5592,
      "Төр": 5593,
      "##ега": 5594,
      "##ырд": 5595,
      "##ияны": 5596,
      "этэн": 5597,
      "##эхтэрэ": 5598,
      "Холб": 5599,
      "##ааһыҥҥа": 5600,
      "тылбааст": 5601,
      "Ойуунускай": 5602,
      "хампаанньа": 5603,
      "Из": 5604,
      "##ань": 5605,
      "##овай": 5606,
      "##үрүй": 5607,
      "##город": 5608,
      "ааҕыллар": 5609,
      "кандидата": 5610,
      "Бур": 5611,
      "##уш": 5612,
      "##дара": 5613,
      "тутаах": 5614,
      "##аһын": 5615,
      "көрбүт": 5616,
      "дойдутааҕы": 5617,
      "оскуолаҕа": 5618,
      "хараҥа": 5619,
      "соци": 5620,
      "математ": 5621,
      "##һар": 5622,
      "өйдөөн": 5623,
      "ыллар": 5624,
      "көтөн": 5625,
      "кырдьык": 5626,
      "домена": 5627,
      "Никифор": 5628,
      "Уч": 5629,
      "Хаб": 5630,
      "гер": 5631,
      "##еш": 5632,
      "дьонугар": 5633,
      "үлэлэрин": 5634,
      "през": 5635,
      "##үмэ": 5636,
      "государство": 5637,
      "раз": 5638,
      "##эннэрэ": 5639,
      "култуур": 5640,
      "үөрэхтээх": 5641,
      "Николаевна": 5642,
      "партия": 5643,
      "саас": 5644,
      "##тур": 5645,
      "кырат": 5646,
      "биллэн": 5647,
      "суруйбута": 5648,
      "үлэһиттэр": 5649,
      "Ленин": 5650,
      "элект": 5651,
      "XI": 5652,
      "монгол": 5653,
      "сэргэ": 5654,
      "эрчий": 5655,
      "этэрэ": 5656,
      "аап": 5657,
      "ылымм": 5658,
      "истэн": 5659,
      "түмэт": 5660,
      "үөрэхтэрин": 5661,
      "36": 5662,
      "Мат": 5663,
      "Ытык": 5664,
      "стан": 5665,
      "##ода": 5666,
      "##кал": 5667,
      "##ыпч": 5668,
      "##гэтэр": 5669,
      "##элинэн": 5670,
      "кыахт": 5671,
      "көрб": 5672,
      "орган": 5673,
      "пром": 5674,
      "мөлтө": 5675,
      "Омук": 5676,
      "дириэкт": 5677,
      "Күөл": 5678,
      "ус": 5679,
      "##өй": 5680,
      "этиллэр": 5681,
      "тутулуга": 5682,
      "сочч": 5683,
      "ыҥырар": 5684,
      "атыттар": 5685,
      "иск": 5686,
      "##гынан": 5687,
      "##аты": 5688,
      "##үгүнэн": 5689,
      "##аанд": 5690,
      "##ньиг": 5691,
      "быһыыга": 5692,
      "холоб": 5693,
      "баайа": 5694,
      "##инград": 5695,
      "Сүрүн": 5696,
      "Халыма": 5697,
      "кытылыгар": 5698,
      "гын": 5699,
      "##ое": 5700,
      "##цов": 5701,
      "##ньыы": 5702,
      "Шв": 5703,
      "##ря": 5704,
      "##ээбиттэрэ": 5705,
      "үйэлэргэ": 5706,
      "толорор": 5707,
      "байыаннай": 5708,
      "##циклопедия": 5709,
      "Аз": 5710,
      "Соф": 5711,
      "##ed": 5712,
      "##тамм": 5713,
      "##аабыттар": 5714,
      "##үнээҕи": 5715,
      "медиц": 5716,
      "өһөс": 5717,
      "45": 5718,
      "Сү": 5719,
      "Хай": 5720,
      "үүт": 5721,
      "##am": 5722,
      "илии": 5723,
      "өйдөбүлү": 5724,
      "эбиттэр": 5725,
      "тиийбэт": 5726,
      "Африка": 5727,
      "презид": 5728,
      "Ордук": 5729,
      "хард": 5730,
      "##СК": 5731,
      "##аҕынан": 5732,
      "##иров": 5733,
      "##ааннаах": 5734,
      "оҕолоох": 5735,
      "хаалл": 5736,
      "ойуун": 5737,
      "кэпсээн": 5738,
      "көлүөнэ": 5739,
      "граждан": 5740,
      "кэргэннэригэр": 5741,
      "учуонай": 5742,
      "сод": 5743,
      "туу": 5744,
      "##тааҕын": 5745,
      "##il": 5746,
      "##аатын": 5747,
      "##ател": 5748,
      "куттара": 5749,
      "үйэтин": 5750,
      "хомуй": 5751,
      "##ыларынааҕы": 5752,
      "##ольк": 5753,
      "##ээһинэ": 5754,
      "экспед": 5755,
      "Вер": 5756,
      "Том": 5757,
      "хим": 5758,
      "##аур": 5759,
      "##hы": 5760,
      "##ука": 5761,
      "##оҕун": 5762,
      "тииптээх": 5763,
      "кутугар": 5764,
      "салайаачч": 5765,
      "кэрд": 5766,
      "государственнай": 5767,
      "млн": 5768,
      "##котик": 5769,
      "Бел": 5770,
      "бопп": 5771,
      "##урд": 5772,
      "##өкк": 5773,
      "##элии": 5774,
      "диэни": 5775,
      "##ены": 5776,
      "1999": 5777,
      "уратылаах": 5778,
      "##ууллар": 5779,
      "География": 5780,
      "Социалистическай": 5781,
      "Кан": 5782,
      "Оттон": 5783,
      "деп": 5784,
      "саст": 5785,
      "##BN": 5786,
      "##эхпит": 5787,
      "үөрэҕэр": 5788,
      "тылга": 5789,
      "##ократ": 5790,
      "сылдьара": 5791,
      "суруйааччы": 5792,
      "бастак": 5793,
      "үрдүкү": 5794,
      "кырдьаҕас": 5795,
      "көһөр": 5796,
      "##үүнү": 5797,
      "ISBN": 5798,
      "##дм": 5799,
      "##оним": 5800,
      "##эйинэн": 5801,
      "быдан": 5802,
      "кыргыһ": 5803,
      "оҥорууга": 5804,
      "анаммыт": 5805,
      "тымныы": 5806,
      "Вин": 5807,
      "са": 5808,
      "уб": 5809,
      "фед": 5810,
      "##ира": 5811,
      "##һын": 5812,
      "суруллубут": 5813,
      "185": 5814,
      "##изн": 5815,
      "хомуур": 5816,
      "ыытыллыбыт": 5817,
      "Былыр": 5818,
      "кубулуйар": 5819,
      "эрдэттэн": 5820,
      "Слеп": 5821,
      "Ким": 5822,
      "##иум": 5823,
      "инд": 5824,
      "Билиҥҥи": 5825,
      "Сахалыы": 5826,
      "төрөппүт": 5827,
      "дэриэ": 5828,
      "рай": 5829,
      "сиир": 5830,
      "##атт": 5831,
      "##сы": 5832,
      "##эриллэр": 5833,
      "##ыла": 5834,
      "дьул": 5835,
      "сиинн": 5836,
      "хото": 5837,
      "туһаныы": 5838,
      "Зах": 5839,
      "##иэххэ": 5840,
      "##инскай": 5841,
      "##айар": 5842,
      "##иков": 5843,
      "тутталлар": 5844,
      "киниэхэ": 5845,
      "дьайыыта": 5846,
      "поэт": 5847,
      "симэл": 5848,
      "театр": 5849,
      "күүһүрд": 5850,
      "регион": 5851,
      "Кыр": 5852,
      "##уһун": 5853,
      "##иист": 5854,
      "1922": 5855,
      "эргиэн": 5856,
      "##өҥүө": 5857,
      "таһымыттан": 5858,
      "быһаарыыны": 5859,
      "Афанасий": 5860,
      "##ааhын": 5861,
      "Аһара": 5862,
      "Дьоппуон": 5863,
      "Сол": 5864,
      "биэс": 5865,
      "форм": 5866,
      "өб": 5867,
      "##дү": 5868,
      "##иа": 5869,
      "##ol": 5870,
      "тула": 5871,
      "барылара": 5872,
      "күнүттэн": 5873,
      "дойдута": 5874,
      "буолуутун": 5875,
      "үрдүкт": 5876,
      "##изация": 5877,
      "туһалааҕы": 5878,
      "сөбүн": 5879,
      "Маал": 5880,
      "туттан": 5881,
      "этиигэ": 5882,
      "##иититтэн": 5883,
      "аһыыр": 5884,
      "иитэр": 5885,
      "Алексеевич": 5886,
      "соҕуруулуу": 5887,
      "оҥоһуллубут": 5888,
      "7696": 5889,
      "Эур": 5890,
      "##таҕа": 5891,
      "##атель": 5892,
      "##улла": 5893,
      "##эмэ": 5894,
      "тыллаах": 5895,
      "уларыйар": 5896,
      "иҥэрилли": 5897,
      "Егорович": 5898,
      "Өлүөх": 5899,
      "сокуонн": 5900,
      "Дмитриевич": 5901,
      "33": 5902,
      "Пер": 5903,
      "Таб": 5904,
      "тан": 5905,
      "##онон": 5906,
      "кыаҕын": 5907,
      "##эҕинэн": 5908,
      "##тора": 5909,
      "тэҥ": 5910,
      "1967": 5911,
      "республика": 5912,
      "##ээччитэ": 5913,
      "тупсан": 5914,
      "дьарыктанар": 5915,
      "быт": 5916,
      "револю": 5917,
      "том": 5918,
      "##hун": 5919,
      "##ou": 5920,
      "##үнү": 5921,
      "үрэх": 5922,
      "киллэрэн": 5923,
      "Урукку": 5924,
      "##армый": 5925,
      "Бы": 5926,
      "Чер": 5927,
      "сек": 5928,
      "уй": 5929,
      "##каҕа": 5930,
      "##гэр": 5931,
      "##орон": 5932,
      "##уулаах": 5933,
      "айар": 5934,
      "тахсыб": 5935,
      "охсон": 5936,
      "төтт": 5937,
      "##ритория": 5938,
      "көннөр": 5939,
      "Не": 5940,
      "##оҕа": 5941,
      "оҕоҕо": 5942,
      "олохт": 5943,
      "##өхт": 5944,
      "үйэлээх": 5945,
      "сороҕор": 5946,
      "буолбутун": 5947,
      "сыһыанна": 5948,
      "дьиэтин": 5949,
      "аасп": 5950,
      "Иннокентий": 5951,
      "Яковл": 5952,
      "сиэ": 5953,
      "ууну": 5954,
      "##od": 5955,
      "##унн": 5956,
      "##аҕай": 5957,
      "буоланнар": 5958,
      "туруга": 5959,
      "1957": 5960,
      "түбэл": 5961,
      "сирдэрэ": 5962,
      "дьиҥнээх": 5963,
      "сүөһ": 5964,
      "экономика": 5965,
      "оруолу": 5966,
      "фак": 5967,
      "фольк": 5968,
      "ыкк": 5969,
      "кыахтара": 5970,
      "##үүлэрэ": 5971,
      "ырыа": 5972,
      "табатык": 5973,
      "##ресс": 5974,
      "##ологическай": 5975,
      "ыраахтааҕы": 5976,
      "##ауре": 5977,
      "##ката": 5978,
      "##ааһыны": 5979,
      "1998": 5980,
      "1960": 5981,
      "Сиригэр": 5982,
      "быһыылаахтык": 5983,
      "балаһыаннь": 5984,
      "Ты": 5985,
      "га": 5986,
      "дем": 5987,
      "суд": 5988,
      "##искэ": 5989,
      "##ot": 5990,
      "##ины": 5991,
      "##улус": 5992,
      "санаабыт": 5993,
      "##аастар": 5994,
      "1930": 5995,
      "Арассыыйаҕа": 5996,
      "народ": 5997,
      "сымна": 5998,
      "Сойуу": 5999,
      "Баай": 6000,
      "Мак": 6001,
      "Сай": 6002,
      "аах": 6003,
      "кат": 6004,
      "##дунай": 6005,
      "##сан": 6006,
      "##гр": 6007,
      "##үлэрэ": 6008,
      "##ията": 6009,
      "##енд": 6010,
      "итир": 6011,
      "эрдэхтэринэ": 6012,
      "1939": 6013,
      "түмүкт": 6014,
      "куоратыгар": 6015,
      "кэргэнигэр": 6016,
      "Борис": 6017,
      "харыста": 6018,
      "Хат": 6019,
      "буук": 6020,
      "ради": 6021,
      "##ула": 6022,
      "билл": 6023,
      "##аабыр": 6024,
      "салайааччыта": 6025,
      "1989": 6026,
      "ыытыллар": 6027,
      "кэбиһэр": 6028,
      "ортотугар": 6029,
      "ыстатый": 6030,
      "факульт": 6031,
      "Вар": 6032,
      "Тр": 6033,
      "Түүл": 6034,
      "колл": 6035,
      "ыты": 6036,
      "##ch": 6037,
      "үөрэмм": 6038,
      "Дьааҥ": 6039,
      "##елл": 6040,
      "##аммат": 6041,
      "үөрэнии": 6042,
      "хоһооно": 6043,
      "ардыларыгар": 6044,
      "##иктэр": 6045,
      "##гыһыт": 6046,
      "промыш": 6047,
      "34": 6048,
      "Тай": 6049,
      "тэб": 6050,
      "тэриллэр": 6051,
      "ым": 6052,
      "##икэ": 6053,
      "##битигэр": 6054,
      "##аһыл": 6055,
      "пров": 6056,
      "Аныгы": 6057,
      "кыраай": 6058,
      "артыыһа": 6059,
      "Эуроп": 6060,
      "Сар": 6061,
      "лауре": 6062,
      "үɵр": 6063,
      "##олб": 6064,
      "этэринэн": 6065,
      "орт": 6066,
      "төгүл": 6067,
      "оке": 6068,
      "Бэс": 6069,
      "бүр": 6070,
      "под": 6071,
      "сэттэ": 6072,
      "туол": 6073,
      "##нык": 6074,
      "##re": 6075,
      "##ири": 6076,
      "##отугар": 6077,
      "этн": 6078,
      "барыы": 6079,
      "олохтон": 6080,
      "##утаан": 6081,
      "кэнники": 6082,
      "1970": 6083,
      "Итини": 6084,
      "кыратык": 6085,
      "ыккард": 6086,
      "мал": 6087,
      "нөҥүө": 6088,
      "##абыт": 6089,
      "##икс": 6090,
      "ааттара": 6091,
      "программ": 6092,
      "буолбуттар": 6093,
      "сирдэригэр": 6094,
      "территория": 6095,
      "Новгород": 6096,
      "Айылҕаҕа": 6097,
      "буруйу": 6098,
      "экспедиция": 6099,
      "Академ": 6100,
      "Кал": 6101,
      "Тум": 6102,
      "##уттарын": 6103,
      "##уулара": 6104,
      "үөрэммитэ": 6105,
      "##ахтык": 6106,
      "уратыларын": 6107,
      "култуура": 6108,
      "1950": 6109,
      "инники": 6110,
      "киллэрэр": 6111,
      "сирдэрин": 6112,
      "таҥараны": 6113,
      "санаалары": 6114,
      "уобалаһа": 6115,
      "##комун": 6116,
      "ийэтэ": 6117,
      "утум": 6118,
      "Макс": 6119,
      "чуолкайдык": 6120,
      "Маалык": 6121,
      "Кэнн": 6122,
      "куол": 6123,
      "##nd": 6124,
      "##она": 6125,
      "##енс": 6126,
      "дьонтон": 6127,
      "туһана": 6128,
      "сайдыы": 6129,
      "саҕалаабыта": 6130,
      "түмүгүнэн": 6131,
      "1973": 6132,
      "кэмнэригэр": 6133,
      "хамнас": 6134,
      "хааччый": 6135,
      "XVII": 6136,
      "Ск": 6137,
      "муо": 6138,
      "##ччи": 6139,
      "талан": 6140,
      "албынн": 6141,
      "Борд": 6142,
      "Кр": 6143,
      "Ксен": 6144,
      "Пек": 6145,
      "Тох": 6146,
      "сайыҥҥы": 6147,
      "##ита": 6148,
      "##эҥ": 6149,
      "1996": 6150,
      "1049": 6151,
      "Кырдь": 6152,
      "норуодунай": 6153,
      "Семенович": 6154,
      "үөскэтэн": 6155,
      "ырыаһ": 6156,
      "Афанасьев": 6157,
      "атаҕ": 6158,
      "аттыгар": 6159,
      "СР": 6160,
      "Эк": 6161,
      "бөҕөр": 6162,
      "##арый": 6163,
      "айыылар": 6164,
      "##ннар": 6165,
      "##етскай": 6166,
      "##цията": 6167,
      "кэҥ": 6168,
      "оҕолорго": 6169,
      "Якутия": 6170,
      "бөһүөлэ": 6171,
      "Индия": 6172,
      "көмөлөһөр": 6173,
      "500": 6174,
      "им": 6175,
      "##ыахтарын": 6176,
      "##нов": 6177,
      "##ГУ": 6178,
      "##инь": 6179,
      "##эли": 6180,
      "айан": 6181,
      "##етер": 6182,
      "буолуут": 6183,
      "##өтүн": 6184,
      "түбэһэн": 6185,
      "дойдуларыгар": 6186,
      "буолуохтарын": 6187,
      "сыллахха": 6188,
      "Энциклопедия": 6189,
      "үгүстүк": 6190,
      "Хоро": 6191,
      "дэл": 6192,
      "чө": 6193,
      "##ль": 6194,
      "##алаабыт": 6195,
      "##элдь": 6196,
      "олорд": 6197,
      "##цияҕа": 6198,
      "##ааһынай": 6199,
      "##стас": 6200,
      "аллараа": 6201,
      "суруйааччыларын": 6202,
      "##офонт": 6203,
      "ситиһии": 6204,
      "тардыһ": 6205,
      "Бастаан": 6206,
      "оҥостон": 6207,
      "карты": 6208,
      "Май": 6209,
      "Уй": 6210,
      "##лыын": 6211,
      "##иргэ": 6212,
      "үлэлииллэр": 6213,
      "буолуулара": 6214,
      "##альн": 6215,
      "суруйааччылар": 6216,
      "сылларыгар": 6217,
      "1964": 6218,
      "арахсан": 6219,
      "сыыһаны": 6220,
      "Ксенофонт": 6221,
      "90": 6222,
      "Хом": 6223,
      "ак": 6224,
      "акт": 6225,
      "гымм": 6226,
      "хоч": 6227,
      "Үт": 6228,
      "##илэрин": 6229,
      "диэт": 6230,
      "өйдөбүлэ": 6231,
      "ойуур": 6232,
      "охсор": 6233,
      "туом": 6234,
      "төрөппүттэрин": 6235,
      "Афанасьевич": 6236,
      "хомууруннь": 6237,
      "Кэнники": 6238,
      "Оскуол": 6239,
      "ааһар": 6240,
      "мар": 6241,
      "мон": 6242,
      "##акт": 6243,
      "##үпп": 6244,
      "##алҕ": 6245,
      "эрэйд": 6246,
      "барыларыгар": 6247,
      "##этээҕи": 6248,
      "кэлл": 6249,
      "1985": 6250,
      "кылаастаах": 6251,
      "1928": 6252,
      "харам": 6253,
      "күүһүнэн": 6254,
      "оҥорбута": 6255,
      "литература": 6256,
      "үксүн": 6257,
      "сулус": 6258,
      "тэриллибит": 6259,
      "литературатын": 6260,
      "бигэргэтэр": 6261,
      "Слепцов": 6262,
      "38": 6263,
      "Св": 6264,
      "таары": 6265,
      "##et": 6266,
      "##уобуй": 6267,
      "##илэргэ": 6268,
      "##ургу": 6269,
      "##ционнай": 6270,
      "саба": 6271,
      "##эллээх": 6272,
      "күрэхт": 6273,
      "Олохтоохторун": 6274,
      "Петерб": 6275,
      "соччо": 6276,
      "Кам": 6277,
      "##нарыгар": 6278,
      "##ѳр": 6279,
      "##уот": 6280,
      "##уберн": 6281,
      "иитэн": 6282,
      "баһылы": 6283,
      "спорд": 6284,
      "Москв": 6285,
      "поэ": 6286,
      "буруйд": 6287,
      "##сед": 6288,
      "##бр": 6289,
      "##анскай": 6290,
      "##атор": 6291,
      "##атыттан": 6292,
      "##нам": 6293,
      "биэрбит": 6294,
      "учуон": 6295,
      "тулуй": 6296,
      "тэҥнээн": 6297,
      "тэрилтэтэ": 6298,
      "оройуонугар": 6299,
      "көмүскүүр": 6300,
      "уордьан": 6301,
      "Көр": 6302,
      "ах": 6303,
      "аньыы": 6304,
      "наар": 6305,
      "нүөм": 6306,
      "ох": 6307,
      "##скы": 6308,
      "##оҕус": 6309,
      "##эллэригэр": 6310,
      "орг": 6311,
      "1935": 6312,
      "128": 6313,
      "бааллара": 6314,
      "көннөрү": 6315,
      "сибээст": 6316,
      "Са": 6317,
      "Сам": 6318,
      "бааһыр": 6319,
      "пар": 6320,
      "сүннь": 6321,
      "##тарынан": 6322,
      "##эд": 6323,
      "##ууп": 6324,
      "##улу": 6325,
      "элбэҕи": 6326,
      "өйдөн": 6327,
      "улууст": 6328,
      "1934": 6329,
      "Иннокентьевич": 6330,
      "Нуучча": 6331,
      "##ньигэс": 6332,
      "Софрон": 6333,
      "Вик": 6334,
      "Лю": 6335,
      "Ох": 6336,
      "күө": 6337,
      "куур": 6338,
      "күһүн": 6339,
      "##ээри": 6340,
      "##ээҕэ": 6341,
      "##мин": 6342,
      "##араа": 6343,
      "##укк": 6344,
      "##ирг": 6345,
      "##ньык": 6346,
      "##евна": 6347,
      "исти": 6348,
      "сэрг": 6349,
      "1997": 6350,
      "1931": 6351,
      "реж": 6352,
      "##ное": 6353,
      "Киев": 6354,
      "мөлтөөн": 6355,
      "сэриилэ": 6356,
      "Кирилл": 6357,
      "Поль": 6358,
      "ча": 6359,
      "##быы": 6360,
      "##ig": 6361,
      "##этиттэн": 6362,
      "##рдээх": 6363,
      "үөрэтт": 6364,
      "хамаанд": 6365,
      "##угур": 6366,
      "кинилэри": 6367,
      "1965": 6368,
      "олохтоохторо": 6369,
      "хапс": 6370,
      "маастара": 6371,
      "боппуруо": 6372,
      "өбүг": 6373,
      "Дьааҥы": 6374,
      "Маны": 6375,
      "саар": 6376,
      "үн": 6377,
      "##иирэ": 6378,
      "184": 6379,
      "бүтэһ": 6380,
      "1937": 6381,
      "Петровна": 6382,
      "##аатах": 6383,
      "Боотур": 6384,
      "Винокур": 6385,
      "Бер": 6386,
      "Вен": 6387,
      "Хайа": 6388,
      "##ые": 6389,
      "##уолл": 6390,
      "барытыгар": 6391,
      "халб": 6392,
      "тылларынан": 6393,
      "сорохтор": 6394,
      "туора": 6395,
      "туорат": 6396,
      "##илипп": 6397,
      "хамнаска": 6398,
      "Андрей": 6399,
      "экономик": 6400,
      "бойобуод": 6401,
      "састааб": 6402,
      "ир": 6403,
      "##чу": 6404,
      "##стык": 6405,
      "Аллараа": 6406,
      "##ства": 6407,
      "тэрилл": 6408,
      "1963": 6409,
      "иҥэрин": 6410,
      "1920": 6411,
      "сэбирд": 6412,
      "таҥаралара": 6413,
      "##ствотын": 6414,
      "көлүөнэлэр": 6415,
      "кубулуйан": 6416,
      "төттөрү": 6417,
      "Об": 6418,
      "Үс": 6419,
      "##ыахтаах": 6420,
      "##нэрин": 6421,
      "##иш": 6422,
      "##аала": 6423,
      "##ыларга": 6424,
      "##алга": 6425,
      "##айан": 6426,
      "этиилэрэ": 6427,
      "##алларыттан": 6428,
      "сиини": 6429,
      "сибэ": 6430,
      "##эхтэриттэн": 6431,
      "быһаарыыга": 6432,
      "улаат": 6433,
      "иитиллибит": 6434,
      "үгэскэ": 6435,
      "1959": 6436,
      "таҥаралар": 6437,
      "##ation": 6438,
      "##ахпытына": 6439,
      "Уһуна": 6440,
      "түбэлт": 6441,
      "Монгол": 6442,
      "##уп": 6443,
      "##тук": 6444,
      "##арнай": 6445,
      "##унар": 6446,
      "1940": 6447,
      "булт": 6448,
      "1929": 6449,
      "оонньуур": 6450,
      "тутуһан": 6451,
      "күүһүрэн": 6452,
      "эрэйиллэр": 6453,
      "гре": 6454,
      "маан": 6455,
      "эҥ": 6456,
      "##чут": 6457,
      "##анс": 6458,
      "бард": 6459,
      "1946": 6460,
      "тэҥҥэ": 6461,
      "##иллибитэ": 6462,
      "ууһа": 6463,
      "олохсуйан": 6464,
      "көрүҥнээх": 6465,
      "Павлов": 6466,
      "##ославнай": 6467,
      "искус": 6468,
      "42": 6469,
      "Аты": 6470,
      "тост": 6471,
      "тиэт": 6472,
      "##ланд": 6473,
      "##кур": 6474,
      "күнүнээҕи": 6475,
      "нэһилиэкт": 6476,
      "уруһ": 6477,
      "кыайа": 6478,
      "кыһын": 6479,
      "1956": 6480,
      "туоһ": 6481,
      "оройуонн": 6482,
      "бэрэст": 6483,
      "наркотик": 6484,
      "Аустр": 6485,
      "Исп": 6486,
      "уп": 6487,
      "##ээбиттэр": 6488,
      "##үллэр": 6489,
      "кэмин": 6490,
      "хаам": 6491,
      "саҥалыы": 6492,
      "Ивановна": 6493,
      "1975": 6494,
      "1974": 6495,
      "элбэхтэ": 6496,
      "тыынар": 6497,
      "мөлтөх": 6498,
      "бириэмэҕэ": 6499,
      "билимин": 6500,
      "оонньуулара": 6501,
      "сүтэр": 6502,
      "Данилов": 6503,
      "РИ": 6504,
      "стат": 6505,
      "тиг": 6506,
      "##уһа": 6507,
      "##уоһун": 6508,
      "##аҕаһ": 6509,
      "кыалл": 6510,
      "оҕол": 6511,
      "барбат": 6512,
      "туттулл": 6513,
      "1961": 6514,
      "тарб": 6515,
      "сыһыан": 6516,
      "1917": 6517,
      "дьарыкт": 6518,
      "##аппыт": 6519,
      "бириэмий": 6520,
      "үгэстэри": 6521,
      "өрүскэ": 6522,
      "Крас": 6523,
      "Өлүөхүмэ": 6524,
      "бөҕөрг": 6525,
      "Сэм": 6526,
      "Филипп": 6527,
      "##ром": 6528,
      "дьулуу": 6529,
      "дьиэтигэр": 6530,
      "айанн": 6531,
      "##ософ": 6532,
      "уратыл": 6533,
      "сирдэргэ": 6534,
      "эргийэн": 6535,
      "##ыппыт": 6536,
      "үөрэппит": 6537,
      "айылҕаны": 6538,
      "ырытан": 6539,
      "Маалыкай": 6540,
      "Кэ": 6541,
      "киэр": 6542,
      "мо": 6543,
      "тоб": 6544,
      "##тыын": 6545,
      "##ьют": 6546,
      "##овой": 6547,
      "кыаттар": 6548,
      "##асп": 6549,
      "этигэр": 6550,
      "былааһы": 6551,
      "буолбат": 6552,
      "кыайар": 6553,
      "оҕолоругар": 6554,
      "уларыйбат": 6555,
      "уратыта": 6556,
      "туохха": 6557,
      "1976": 6558,
      "ааттаналлар": 6559,
      "холбо": 6560,
      "сыһыар": 6561,
      "кубулут": 6562,
      "биллибит": 6563,
      "төгүр": 6564,
      "төлө": 6565,
      "01": 6566,
      "Муус": 6567,
      "##як": 6568,
      "##онор": 6569,
      "##иис": 6570,
      "##үгүнн": 6571,
      "тылыттан": 6572,
      "##эхтэр": 6573,
      "алта": 6574,
      "##иннэ": 6575,
      "1936": 6576,
      "сөбүлүүр": 6577,
      "##ритания": 6578,
      "баайд": 6579,
      "Ахс": 6580,
      "Ба": 6581,
      "Иг": 6582,
      "Мал": 6583,
      "балыы": 6584,
      "нэ": 6585,
      "той": 6586,
      "христ": 6587,
      "##уоҕ": 6588,
      "##танан": 6589,
      "үөскээбитэ": 6590,
      "баh": 6591,
      "улаатт": 6592,
      "Анна": 6593,
      "тылларыгар": 6594,
      "председ": 6595,
      "депута": 6596,
      "03": 6597,
      "үүнэн": 6598,
      "##гыр": 6599,
      "##50": 6600,
      "##ter": 6601,
      "##аак": 6602,
      "##чча": 6603,
      "##үөнн": 6604,
      "көсп": 6605,
      "##окс": 6606,
      "сылдьарын": 6607,
      "сурукка": 6608,
      "алп": 6609,
      "##наахтык": 6610,
      "уолаттар": 6611,
      "1918": 6612,
      "чинчийэр": 6613,
      "эбэҥк": 6614,
      "Эуропа": 6615,
      "Рим": 6616,
      "биб": 6617,
      "чыпч": 6618,
      "##чи": 6619,
      "##ынай": 6620,
      "##ииттэн": 6621,
      "##үгүн": 6622,
      "##спут": 6623,
      "иһэрэ": 6624,
      "##ктээх": 6625,
      "үчүгэйгэ": 6626,
      "180": 6627,
      "ааттаммыт": 6628,
      "1966": 6629,
      "1977": 6630,
      "сүрүнн": 6631,
      "сэбиэдиссэйинэн": 6632,
      "өйдөөб": 6633,
      "Сергей": 6634,
      "The": 6635,
      "Эб": 6636,
      "пл": 6637,
      "собуо": 6638,
      "##ции": 6639,
      "##үйэ": 6640,
      "##ia": 6641,
      "диэй": 6642,
      "##спитэ": 6643,
      "суолтатын": 6644,
      "салайан": 6645,
      "1982": 6646,
      "оскуоланы": 6647,
      "тириэрди": 6648,
      "1912": 6649,
      "бэлиэтэнэр": 6650,
      "хааччыйар": 6651,
      "##ing": 6652,
      "##форма": 6653,
      "хорсун": 6654,
      "ылынар": 6655,
      "техник": 6656,
      "Сойуус": 6657,
      "##окко": 6658,
      "диэйэт": 6659,
      "Туй": 6660,
      "##ra": 6661,
      "олук": 6662,
      "##иһиэхэ": 6663,
      "##оҕон": 6664,
      "##атаҕа": 6665,
      "туһалыыр": 6666,
      "өйдөрүгэр": 6667,
      "алм": 6668,
      "урбаан": 6669,
      "1968": 6670,
      "умнуллубат": 6671,
      "билимнэрин": 6672,
      "Васильевна": 6673,
      "олоҕуран": 6674,
      "##иэһин": 6675,
      "сабыды": 6676,
      "босхол": 6677,
      "XIX": 6678,
      "Виктор": 6679,
      "04": 6680,
      "Ий": 6681,
      "губерн": 6682,
      "пос": 6683,
      "таҕы": 6684,
      "##ющ": 6685,
      "##үбэт": 6686,
      "##80": 6687,
      "##таҕ": 6688,
      "##лэрин": 6689,
      "##таны": 6690,
      "салл": 6691,
      "тахсаллар": 6692,
      "куһаҕана": 6693,
      "##устро": 6694,
      "1984": 6695,
      "эбиллэр": 6696,
      "саҕаламмыта": 6697,
      "хомуйан": 6698,
      "умнан": 6699,
      "совхоз": 6700,
      "Буор": 6701,
      "Мол": 6702,
      "план": 6703,
      "сапп": 6704,
      "##ош": 6705,
      "##чик": 6706,
      "##чаан": 6707,
      "##онн": 6708,
      "##ыыларга": 6709,
      "##ырый": 6710,
      "кэминэн": 6711,
      "элбээтэ": 6712,
      "##һаҕас": 6713,
      "##иитэр": 6714,
      "ырыын": 6715,
      "истэр": 6716,
      "сатыы": 6717,
      "санаатынан": 6718,
      "күүһүн": 6719,
      "уларытан": 6720,
      "тохтотор": 6721,
      "чэпчэки": 6722,
      "##армыйаҕа": 6723,
      "Бордоҥ": 6724,
      "Лит": 6725,
      "Уопс": 6726,
      "раб": 6727,
      "ред": 6728,
      "##төн": 6729,
      "##ыынан": 6730,
      "##арх": 6731,
      "##ама": 6732,
      "##ыктаах": 6733,
      "##ардар": 6734,
      "туттуу": 6735,
      "182": 6736,
      "Ары": 6737,
      "ааты": 6738,
      "1954": 6739,
      "##үһүнн": 6740,
      "дьайар": 6741,
      "Петров": 6742,
      "##янскай": 6743,
      "сүб": 6744,
      "Балаҕан": 6745,
      "бигэргэт": 6746,
      "училище": 6747,
      "Үгүс": 6748,
      "Ксенофонтов": 6749,
      "дээх": 6750,
      "оч": 6751,
      "уг": 6752,
      "фин": 6753,
      "##чыт": 6754,
      "##um": 6755,
      "приз": 6756,
      "##өххө": 6757,
      "кэкк": 6758,
      "##үөнү": 6759,
      "олохтооҕо": 6760,
      "комсом": 6761,
      "суруналыы": 6762,
      "##бэттэр": 6763,
      "маарынныыр": 6764,
      "Ок": 6765,
      "сой": 6766,
      "тым": 6767,
      "##рет": 6768,
      "##үккэ": 6769,
      "##уой": 6770,
      "оҥоруон": 6771,
      "##осм": 6772,
      "##ээнэ": 6773,
      "##устаах": 6774,
      "##аков": 6775,
      "халый": 6776,
      "##өтөр": 6777,
      "мөлүйүөн": 6778,
      "оччотооҕу": 6779,
      "чыыч": 6780,
      "Кэри": 6781,
      "бэрилли": 6782,
      "чоп": 6783,
      "##нэй": 6784,
      "##че": 6785,
      "##син": 6786,
      "##бар": 6787,
      "##оров": 6788,
      "##тав": 6789,
      "санаан": 6790,
      "##тыннь": 6791,
      "##ньэ": 6792,
      "##ыыларыттан": 6793,
      "##атаҕына": 6794,
      "##обута": 6795,
      "##циял": 6796,
      "аанньа": 6797,
      "уһуна": 6798,
      "Сирэ": 6799,
      "Егоров": 6800,
      "изд": 6801,
      "ситиһиилээхтик": 6802,
      "Халл": 6803,
      "бэрил": 6804,
      "сер": 6805,
      "стар": 6806,
      "Өссө": 6807,
      "##айыы": 6808,
      "##этэрэ": 6809,
      "##ыһан": 6810,
      "көл": 6811,
      "##имт": 6812,
      "##има": 6813,
      "буоларыгар": 6814,
      "олоро": 6815,
      "быһаараллар": 6816,
      "үөрэтэллэр": 6817,
      "аҕатын": 6818,
      "##ическ": 6819,
      "үтүгүнн": 6820,
      "Антон": 6821,
      "##тарына": 6822,
      "киллэрбитэ": 6823,
      "көрдөрөн": 6824,
      "өлбүтүн": 6825,
      "хааччахт": 6826,
      "ардыларынааҕы": 6827,
      "офици": 6828,
      "Ком": 6829,
      "Ле": 6830,
      "##ария": 6831,
      "кычч": 6832,
      "билбэтин": 6833,
      "үөскүүллэр": 6834,
      "суруллар": 6835,
      "ыйааһын": 6836,
      "##өһүн": 6837,
      "булк": 6838,
      "салайааччы": 6839,
      "1988": 6840,
      "аҕыйаан": 6841,
      "кэбист": 6842,
      "утарыта": 6843,
      "үүнээйи": 6844,
      "судаарыстыбаннай": 6845,
      "фольклор": 6846,
      "Аар": 6847,
      "Юрий": 6848,
      "аахс": 6849,
      "ветер": 6850,
      "ыытар": 6851,
      "##ых": 6852,
      "##ыкка": 6853,
      "##ылла": 6854,
      "иһиитэ": 6855,
      "илиг": 6856,
      "1986": 6857,
      "1971": 6858,
      "1972": 6859,
      "холбоон": 6860,
      "диэҥҥэ": 6861,
      "бэлиэтээн": 6862,
      "өстөөх": 6863,
      "мааныл": 6864,
      "председател": 6865,
      "Бүт": 6866,
      "дет": 6867,
      "күл": 6868,
      "ос": 6869,
      "##ье": 6870,
      "##аналлар": 6871,
      "санаатыттан": 6872,
      "сиринэн": 6873,
      "##еля": 6874,
      "үөскээһин": 6875,
      "##цияны": 6876,
      "##өнү": 6877,
      "суола": 6878,
      "##уоруйа": 6879,
      "1979": 6880,
      "120": 6881,
      "##гөй": 6882,
      "үгэстэргэ": 6883,
      "көһөн": 6884,
      "Спир": 6885,
      "демократ": 6886,
      "Москваҕа": 6887,
      "37": 6888,
      "of": 6889,
      "Гра": 6890,
      "кэтэ": 6891,
      "минист": 6892,
      "эбитэ": 6893,
      "##итигэр": 6894,
      "##эннэрин": 6895,
      "араҥ": 6896,
      "кылаас": 6897,
      "1953": 6898,
      "1952": 6899,
      "норуоттар": 6900,
      "маннь": 6901,
      "ийэтин": 6902,
      "музей": 6903,
      "Георгий": 6904,
      "бастакынан": 6905,
      "##изнес": 6906,
      "Неустро": 6907,
      "##уоһуннь": 6908,
      "пуон": 6909,
      "ыы": 6910,
      "үҥк": 6911,
      "##уж": 6912,
      "##атол": 6913,
      "үөрэххэ": 6914,
      "сирэй": 6915,
      "англ": 6916,
      "1947": 6917,
      "уратылара": 6918,
      "хаалыан": 6919,
      "Иль": 6920,
      "баһылаабыт": 6921,
      "төгүлл": 6922,
      "Федоров": 6923,
      "институт": 6924,
      "олоҕурар": 6925,
      "41": 6926,
      "Иэнэ": 6927,
      "Маҥ": 6928,
      "кав": 6929,
      "киирд": 6930,
      "эп": 6931,
      "##нат": 6932,
      "##ида": 6933,
      "##гэл": 6934,
      "##аланар": 6935,
      "оҥоруллар": 6936,
      "эмискэ": 6937,
      "Олор": 6938,
      "##ласт": 6939,
      "туттубат": 6940,
      "183": 6941,
      "кыраад": 6942,
      "##аатаҕына": 6943,
      "тэрийэр": 6944,
      "##ецтар": 6945,
      "манньы": 6946,
      "учууталынан": 6947,
      "социальнай": 6948,
      "бөһүөлэгэ": 6949,
      "06": 6950,
      "Куз": 6951,
      "Син": 6952,
      "түү": 6953,
      "яз": 6954,
      "##id": 6955,
      "##аларыттан": 6956,
      "аһы": 6957,
      "##угэр": 6958,
      "ылынан": 6959,
      "##астаах": 6960,
      "1983": 6961,
      "1921": 6962,
      "атом": 6963,
      "##үөххэ": 6964,
      "##ноох": 6965,
      "баһылыыр": 6966,
      "майгына": 6967,
      "университет": 6968,
      "доктора": 6969,
      "философ": 6970,
      "In": 6971,
      "Гог": 6972,
      "Уу": 6973,
      "биһ": 6974,
      "күһ": 6975,
      "##ду": 6976,
      "##бек": 6977,
      "##фед": 6978,
      "##рдара": 6979,
      "сылтаан": 6980,
      "##эйэр": 6981,
      "##ернай": 6982,
      "##үөҕ": 6983,
      "эрэн": 6984,
      "ылаллар": 6985,
      "1981": 6986,
      "1927": 6987,
      "аҥар": 6988,
      "Нью": 6989,
      "Аммосов": 6990,
      "чугаһ": 6991,
      "Ленинград": 6992,
      "культура": 6993,
      "училищ": 6994,
      "хааллаҕына": 6995,
      "Спирид": 6996,
      "02": 6997,
      "Ана": 6998,
      "кэргэ": 6999,
      "##ad": 7000,
      "##ахх": 7001,
      "буолалларын": 7002,
      "##ииргэ": 7003,
      "##оҕой": 7004,
      "өйүнэн": 7005,
      "тураллар": 7006,
      "##аастара": 7007,
      "1969": 7008,
      "тардыытын": 7009,
      "суолталара": 7010,
      "кинигэтигэр": 7011,
      "сулуст": 7012,
      "##эhил": 7013,
      "кавал": 7014,
      "46": 7015,
      "III": 7016,
      "Хары": 7017,
      "Яп": 7018,
      "ии": 7019,
      "кун": 7020,
      "о5": 7021,
      "тра": 7022,
      "##туу": 7023,
      "##игир": 7024,
      "##эннэҕинэ": 7025,
      "##эбил": 7026,
      "1948": 7027,
      "1978": 7028,
      "Стал": 7029,
      "##ица": 7030,
      "Олоххо": 7031,
      "арыгыһыт": 7032,
      "эппиэтт": 7033,
      "матырый": 7034,
      "сулустар": 7035,
      "докум": 7036,
      "улааппыт": 7037,
      "СГУ": 7038,
      "вал": 7039,
      "дэнэр": 7040,
      "соп": 7041,
      "экк": 7042,
      "##упп": 7043,
      "##st": 7044,
      "##буттара": 7045,
      "##ыһах": 7046,
      "##отор": 7047,
      "##амб": 7048,
      "тылтан": 7049,
      "##уйуу": 7050,
      "таҥас": 7051,
      "оҥороругар": 7052,
      "кыһалҕ": 7053,
      "##ээһинн": 7054,
      "олохторо": 7055,
      "оҥороору": 7056,
      "үксүгэр": 7057,
      "Бэйэтэ": 7058,
      "суоҕун": 7059,
      "Аҕата": 7060,
      "47": 7061,
      "Норуо": 7062,
      "бөҕө": 7063,
      "тый": 7064,
      "##ген": 7065,
      "##ттарыгар": 7066,
      "##эхс": 7067,
      "##ерм": 7068,
      "##ыран": 7069,
      "##уохтарын": 7070,
      "түст": 7071,
      "Дьэ": 7072,
      "сылдьалларын": 7073,
      "##олорго": 7074,
      "аналл": 7075,
      "суруйааччыта": 7076,
      "атыыһ": 7077,
      "тарҕанан": 7078,
      "тэрилтэлэрэ": 7079,
      "үтүктэр": 7080,
      "Австр": 7081,
      "массыына": 7082,
      "чөмп": 7083,
      "Комп": 7084,
      "Нар": 7085,
      "Пл": 7086,
      "Сив": 7087,
      "ачч": 7088,
      "лаб": 7089,
      "сэк": 7090,
      "##оһун": 7091,
      "##ысп": 7092,
      "##биил": 7093,
      "##фа": 7094,
      "##улуобуй": 7095,
      "барб": 7096,
      "##ааһынан": 7097,
      "##ыллаллар": 7098,
      "1962": 7099,
      "ыҥырыллыбыт": 7100,
      "ыарыыны": 7101,
      "##ent": 7102,
      "холбоһон": 7103,
      "быраабыл": 7104,
      "Сүбэтин": 7105,
      "##иумун": 7106,
      "спордун": 7107,
      "бэрин": 7108,
      "генер": 7109,
      "доҕ": 7110,
      "драм": 7111,
      "уоп": 7112,
      "##вор": 7113,
      "##ынааҕы": 7114,
      "кыаллар": 7115,
      "##ирэ": 7116,
      "##еральнай": 7117,
      "##аһаа": 7118,
      "##ээб": 7119,
      "##иэнэ": 7120,
      "биэрэллэр": 7121,
      "150": 7122,
      "##ковай": 7123,
      "Сахаларга": 7124,
      "кэргэнэ": 7125,
      "конт": 7126,
      "Кулун": 7127,
      "директор": 7128,
      "Христос": 7129,
      "профессор": 7130,
      "44": 7131,
      "Бүтүн": 7132,
      "Сер": 7133,
      "Сиэр": 7134,
      "аэр": 7135,
      "ааҕар": 7136,
      "##пүт": 7137,
      "##о5": 7138,
      "##ыч": 7139,
      "##im": 7140,
      "##ыннар": 7141,
      "көпп": 7142,
      "Арыгы": 7143,
      "##уулары": 7144,
      "Үчүгэйи": 7145,
      "##рупп": 7146,
      "култууратын": 7147,
      "усулуобуй": 7148,
      "учуонайдар": 7149,
      "Вол": 7150,
      "Оҥ": 7151,
      "Тат": 7152,
      "адм": 7153,
      "бэргэ": 7154,
      "уута": 7155,
      "ыаллар": 7156,
      "##ио": 7157,
      "##ца": 7158,
      "##ттаан": 7159,
      "##ород": 7160,
      "##ыыс": 7161,
      "кураан": 7162,
      "##ени": 7163,
      "эрэллэр": 7164,
      "##имович": 7165,
      "үөһэ": 7166,
      "##бэтэх": 7167,
      "Киһиэхэ": 7168,
      "өйдөбүллэрэ": 7169,
      "Иванова": 7170,
      "олохсуйар": 7171,
      "кырдьаҕа": 7172,
      "кутталлаах": 7173,
      "хаптал": 7174,
      "түөлб": 7175,
      "сыһыаннаһ": 7176,
      "промышл": 7177,
      "буолуутугар": 7178,
      "56": 7179,
      "Ак": 7180,
      "Бэйэ": 7181,
      "Бочуо": 7182,
      "Тара": 7183,
      "Чуу": 7184,
      "Ыам": 7185,
      "ск": 7186,
      "##пр": 7187,
      "##оя": 7188,
      "##хуос": 7189,
      "##отов": 7190,
      "##оҕос": 7191,
      "таһаары": 7192,
      "##ейн": 7193,
      "хайалаах": 7194,
      "хаһыа": 7195,
      "суруйан": 7196,
      "1987": 7197,
      "арахсар": 7198,
      "аймахт": 7199,
      "Кытайга": 7200,
      "##емперат": 7201,
      "оҥороллоро": 7202,
      "айылҕаҕа": 7203,
      "наҕараадаламмыта": 7204,
      "05": 7205,
      "Алб": 7206,
      "Су": 7207,
      "##иэхтэрин": 7208,
      "##вод": 7209,
      "##аатан": 7210,
      "##ттэр": 7211,
      "##иһа": 7212,
      "##инээн": 7213,
      "кэлбитэ": 7214,
      "##аайа": 7215,
      "##ардас": 7216,
      "суолунан": 7217,
      "иитиллэр": 7218,
      "1932": 7219,
      "##ерациятын": 7220,
      "үөскэтэллэр": 7221,
      "хаһыакка": 7222,
      "православнай": 7223,
      "хардары": 7224,
      "провин": 7225,
      "управ": 7226,
      "чаҕ": 7227,
      "##каны": 7228,
      "##МЦ": 7229,
      "##утук": 7230,
      "##аннарын": 7231,
      "буоларынан": 7232,
      "түүн": 7233,
      "сылдьыы": 7234,
      "##едж": 7235,
      "ыйыттан": 7236,
      "киһитин": 7237,
      "суолун": 7238,
      "эрдэхтэриттэн": 7239,
      "##чыстыб": 7240,
      "үлэһиттэрэ": 7241,
      "бэлиэтииллэр": 7242,
      "түргэн": 7243,
      "компьют": 7244,
      "субъ": 7245,
      "атаахта": 7246,
      "##аныысс": 7247,
      "өрүстэр": 7248,
      "содул": 7249,
      "the": 7250,
      "Сев": 7251,
      "за": 7252,
      "ниэм": 7253,
      "ыст": 7254,
      "##буттар": 7255,
      "##за": 7256,
      "##БУ": 7257,
      "##уоб": 7258,
      "##татыгар": 7259,
      "дьыл": 7260,
      "##аспыт": 7261,
      "үөрэтэ": 7262,
      "##гыс": 7263,
      "аҕалар": 7264,
      "##ственн": 7265,
      "атыннык": 7266,
      "1958": 7267,
      "кэмнэрэ": 7268,
      "солк": 7269,
      "дэриэбин": 7270,
      "Тохсунньу": 7271,
      "РИМЦ": 7272,
      "39": 7273,
      "Тугу": 7274,
      "тран": 7275,
      "фран": 7276,
      "хата": 7277,
      "##аара": 7278,
      "##калар": 7279,
      "##аадь": 7280,
      "##оны": 7281,
      "##ила": 7282,
      "##үүсс": 7283,
      "эргэ": 7284,
      "баҕара": 7285,
      "болҕ": 7286,
      "эккир": 7287,
      "Гал": 7288,
      "Пар": 7289,
      "Уст": 7290,
      "лет": 7291,
      "милли": 7292,
      "сүг": 7293,
      "температ": 7294,
      "##удь": 7295,
      "##ление": 7296,
      "##нал": 7297,
      "##скө": 7298,
      "##олев": 7299,
      "##овка": 7300,
      "кым": 7301,
      "Англ": 7302,
      "тулуйар": 7303,
      "##эттэр": 7304,
      "арыйыы": 7305,
      "##талы": 7306,
      "кэргэннэрэ": 7307,
      "интерн": 7308,
      "табыллыбат": 7309,
      "худуоһуннь": 7310,
      "Атырдьах": 7311,
      "Од": 7312,
      "Уон": 7313,
      "миэт": 7314,
      "ра": 7315,
      "##бург": 7316,
      "##аран": 7317,
      "##там": 7318,
      "##өбөл": 7319,
      "##обл": 7320,
      "##ммат": 7321,
      "кутур": 7322,
      "1926": 7323,
      "туолб": 7324,
      "степ": 7325,
      "этиилэр": 7326,
      "сөбүлээбэт": 7327,
      "бэчээттэн": 7328,
      "тириэрдиэн": 7329,
      "тустууга": 7330,
      "буукуб": 7331,
      "алпаб": 7332,
      "48": 7333,
      "Рус": 7334,
      "Хан": 7335,
      "аһаҕас": 7336,
      "кг": 7337,
      "кэн": 7338,
      "реп": 7339,
      "##тарыттан": 7340,
      "##игынан": 7341,
      "дьоҕ": 7342,
      "##ень": 7343,
      "иһии": 7344,
      "үлэлэрэ": 7345,
      "ыйааһына": 7346,
      "кыттыбыт": 7347,
      "тутта": 7348,
      "хайалар": 7349,
      "биэрбэт": 7350,
      "##ыҥы": 7351,
      "тэрилтэлэр": 7352,
      "баҕатын": 7353,
      "быһаарыылаах": 7354,
      "Степанович": 7355,
      "миэстэни": 7356,
      "ыччат": 7357,
      "Никифоров": 7358,
      "Винокуров": 7359,
      "##аҕаһыын": 7360,
      "таҕыста": 7361,
      "Британия": 7362,
      "Ист": 7363,
      "Имп": 7364,
      "рек": 7365,
      "соб": 7366,
      "##эйдэр": 7367,
      "##уктар": 7368,
      "дьүһүнн": 7369,
      "##оххо": 7370,
      "билс": 7371,
      "оҥорууну": 7372,
      "##ырык": 7373,
      "##оҕол": 7374,
      "##абай": 7375,
      "хаачыстыб": 7376,
      "туттуб": 7377,
      "информа": 7378,
      "салайааччылар": 7379,
      "хамсаан": 7380,
      "1923": 7381,
      "иннигэр": 7382,
      "##өҥүл": 7383,
      "Москуба": 7384,
      "киирсэллэр": 7385,
      "көрүҥнэрэ": 7386,
      "Санкт": 7387,
      "композ": 7388,
      "хантан": 7389,
      "үөрүйэх": 7390,
      "Төрөппүттэр": 7391,
      "Президиумун": 7392,
      "лауреата": 7393,
      "үɵрэҕириитин": 7394,
      "океан": 7395,
      "Игнат": 7396,
      "43": 7397,
      "Бэр": 7398,
      "Дал": 7399,
      "Муо": 7400,
      "роман": 7401,
      "##фер": 7402,
      "##онович": 7403,
      "олимп": 7404,
      "##тынан": 7405,
      "##ппыт": 7406,
      "барыыта": 7407,
      "ылыы": 7408,
      "суолга": 7409,
      "##ости": 7410,
      "куту": 7411,
      "бырыһы": 7412,
      "кылг": 7413,
      "1925": 7414,
      "соҕус": 7415,
      "хомол": 7416,
      "спе": 7417,
      "уобалаһыгар": 7418,
      "үксэ": 7419,
      "абааһы": 7420,
      "##ердар": 7421,
      "күүһүрэр": 7422,
      "дьулуһ": 7423,
      "диэтэххэ": 7424,
      "халбаҥ": 7425,
      "матырыйаал": 7426,
      "ГУ": 7427,
      "Тих": 7428,
      "саах": 7429,
      "##па": 7430,
      "##док": 7431,
      "##кан": 7432,
      "##иялаах": 7433,
      "буоларга": 7434,
      "##ийнай": 7435,
      "олортон": 7436,
      "##апит": 7437,
      "тохс": 7438,
      "оҥорбутун": 7439,
      "тимири": 7440,
      "Гаврильевич": 7441,
      "Ефрем": 7442,
      "сырыттаҕына": 7443,
      "диэйэтэлэ": 7444,
      "##биилэh": 7445,
      "болҕом": 7446,
      "07": 7447,
      "53": 7448,
      "75": 7449,
      "сиһ": 7450,
      "саһар": 7451,
      "##улуур": 7452,
      "билинэн": 7453,
      "##ийбит": 7454,
      "аһын": 7455,
      "ананан": 7456,
      "##ьева": 7457,
      "Анатол": 7458,
      "##аннаҕына": 7459,
      "##ээхтэрин": 7460,
      "кыраныысс": 7461,
      "кыһата": 7462,
      "өлл": 7463,
      "комит": 7464,
      "оройуона": 7465,
      "иннинээҕи": 7466,
      "туттунар": 7467,
      "Павел": 7468,
      "остуоруй": 7469,
      "охсуһуу": 7470,
      "анныгар": 7471,
      "саҕаланыытыгар": 7472,
      "админист": 7473,
      "год": 7474,
      "пуу": 7475,
      "сий": 7476,
      "сем": 7477,
      "Үкс": 7478,
      "үҥ": 7479,
      "##ека": 7480,
      "##оору": 7481,
      "##иэхэ": 7482,
      "##һу": 7483,
      "##ik": 7484,
      "##ааты": 7485,
      "##ытан": 7486,
      "##ыылл": 7487,
      "иһэ": 7488,
      "##тоном": 7489,
      "##бутун": 7490,
      "урб": 7491,
      "кыайыылааҕа": 7492,
      "##аллан": 7493,
      "оҥоһуллар": 7494,
      "##ээтэҕинэ": 7495,
      "Федорович": 7496,
      "миэстэ": 7497,
      "Союз": 7498,
      "Европаҕа": 7499,
      "көнө": 7500,
      "утарс": 7501,
      "кистэлэ": 7502,
      "уруһуйд": 7503,
      "09": 7504,
      "57": 7505,
      "Аҥ": 7506,
      "быта": 7507,
      "групп": 7508,
      "мэһ": 7509,
      "мус": 7510,
      "энь": 7511,
      "##кэй": 7512,
      "##этэх": 7513,
      "##ыйбыт": 7514,
      "үөскээһинэ": 7515,
      "илэ": 7516,
      "омугу": 7517,
      "##аммыттара": 7518,
      "омуктары": 7519,
      "сыаналаан": 7520,
      "ардыгар": 7521,
      "Степанов": 7522,
      "ыалдьан": 7523,
      "литературнай": 7524,
      "сайыннарар": 7525,
      "кытаанахтык": 7526,
      "сылдьыбыттара": 7527,
      "нэһилиэнньэлээх": 7528,
      "общественнай": 7529,
      "педагогическай": 7530,
      "##ьбом": 7531,
      "секрет": 7532,
      "эньиэр": 7533,
      "55": 7534,
      "Быр": 7535,
      "Күү": 7536,
      "Ыар": 7537,
      "соһ": 7538,
      "##оччу": 7539,
      "##ыра": 7540,
      "##ur": 7541,
      "##айыа": 7542,
      "##илия": 7543,
      "##итэн": 7544,
      "кыттар": 7545,
      "##иканы": 7546,
      "##енко": 7547,
      "##аарар": 7548,
      "##ыйах": 7549,
      "олорбута": 7550,
      "кыттыбыта": 7551,
      "кис": 7552,
      "ааттыыр": 7553,
      "үйэлэр": 7554,
      "сирдэри": 7555,
      "хонтур": 7556,
      "хаалбыта": 7557,
      "##сидь": 7558,
      "Саҥаны": 7559,
      "матери": 7560,
      "алдьат": 7561,
      "субу": 7562,
      "оҥордоҕуна": 7563,
      "билбэттэрин": 7564,
      "##өбөлүүсс": 7565,
      "08": 7566,
      "Аармыйаҕа": 7567,
      "Или": 7568,
      "бүпп": 7569,
      "зав": 7570,
      "мм": 7571,
      "##пл": 7572,
      "##сад": 7573,
      "##вард": 7574,
      "##өө": 7575,
      "##ыларыттан": 7576,
      "##алааһын": 7577,
      "##аҕыттан": 7578,
      "##ыһар": 7579,
      "##айдаах": 7580,
      "буһар": 7581,
      "Алма": 7582,
      "аннь": 7583,
      "инжен": 7584,
      "##иирдээҕи": 7585,
      "бырааһын": 7586,
      "1924": 7587,
      "кэбиһи": 7588,
      "Стр": 7589,
      "##оза": 7590,
      "бэлиэтинэн": 7591,
      "##ууларыгар": 7592,
      "көҥүлл": 7593,
      "салҕанан": 7594,
      "Суруй": 7595,
      "химия": 7596,
      "язык": 7597,
      "400": 7598,
      "ааҕан": 7599,
      "биһиэхэ": 7600,
      "мик": 7601,
      "нэhил": 7602,
      "соһу": 7603,
      "үүнн": 7604,
      "##тааһын": 7605,
      "##ратын": 7606,
      "##ибит": 7607,
      "##сер": 7608,
      "##ir": 7609,
      "диэмэ": 7610,
      "##айдык": 7611,
      "уларыта": 7612,
      "сэриитигэр": 7613,
      "буоллулар": 7614,
      "##онньор": 7615,
      "тарҕан": 7616,
      "##ехан": 7617,
      "студ": 7618,
      "##мпу": 7619,
      "бөлөххө": 7620,
      "христиан": 7621,
      "тыы": 7622,
      "чиҥ": 7623,
      "##чэ": 7624,
      "##иэтэ": 7625,
      "##сов": 7626,
      "##ng": 7627,
      "##10": 7628,
      "##аһынан": 7629,
      "оҥоруллубут": 7630,
      "Дьиэ": 7631,
      "эмтэн": 7632,
      "үчүгэйэ": 7633,
      "##каз": 7634,
      "преп": 7635,
      "бүтүүтүгэр": 7636,
      "Арм": 7637,
      "үлэһитт": 7638,
      "уобаласт": 7639,
      "сиинигэр": 7640,
      "билимм": 7641,
      "сымый": 7642,
      "хаайыыга": 7643,
      "хатылаан": 7644,
      "соннук": 7645,
      "эйгэтигэр": 7646,
      "тутусп": 7647,
      "Кыым": 7648,
      "Арыгыны": 7649,
      "илигинэ": 7650,
      "ht": 7651,
      "Уһ": 7652,
      "до": 7653,
      "кр": 7654,
      "кан": 7655,
      "косм": 7656,
      "##фт": 7657,
      "##илэриттэн": 7658,
      "##рдэр": 7659,
      "сылаас": 7660,
      "##иятыгар": 7661,
      "##имэ": 7662,
      "##убаҕа": 7663,
      "##ется": 7664,
      "туругунан": 7665,
      "өйдүүр": 7666,
      "өрүт": 7667,
      "олоруу": 7668,
      "##ейм": 7669,
      "көмп": 7670,
      "харах": 7671,
      "1955": 7672,
      "##аама": 7673,
      "##бүтэ": 7674,
      "дьопп": 7675,
      "учууталлар": 7676,
      "тэрийбитэ": 7677,
      "тутуһуу": 7678,
      "бэлэмҥэ": 7679,
      "кыыһа": 7680,
      "ортотунан": 7681,
      "уоту": 7682,
      "мэтээл": 7683,
      "кыахтааҕын": 7684,
      "##олбон": 7685,
      "чыычаах": 7686,
      "Би": 7687,
      "Тыа": 7688,
      "вид": 7689,
      "пери": 7690,
      "фон": 7691,
      "үкт": 7692,
      "##os": 7693,
      "##энии": 7694,
      "##ола": 7695,
      "##эйии": 7696,
      "бараллар": 7697,
      "кэми": 7698,
      "##ыырын": 7699,
      "тутуллубут": 7700,
      "уларыпп": 7701,
      "##ейт": 7702,
      "бүтүнн": 7703,
      "ааттаан": 7704,
      "##ытархай": 7705,
      "дьайыылара": 7706,
      "бөлөҕө": 7707,
      "кыахтаахтар": 7708,
      "түүллэр": 7709,
      "түүлүгэр": 7710,
      "##оммута": 7711,
      "эттэххэ": 7712,
      "Санаа": 7713,
      "##ьяна": 7714,
      "тиһигэ": 7715,
      "хоһоонноро": 7716,
      "судургу": 7717,
      "кэллэҕинэ": 7718,
      "үтүгүннэрэн": 7719,
      "ко": 7720,
      "мааны": 7721,
      "чөл": 7722,
      "чыыһ": 7723,
      "өт": 7724,
      "##вен": 7725,
      "##ьм": 7726,
      "##стары": 7727,
      "##өрүнэн": 7728,
      "кытай": 7729,
      "үөрэннэҕинэ": 7730,
      "##ийэр": 7731,
      "эмэтэ": 7732,
      "кэлэрин": 7733,
      "урукк": 7734,
      "1933": 7735,
      "быраап": 7736,
      "1914": 7737,
      "тарҕат": 7738,
      "төрүттэрэ": 7739,
      "арахсаллар": 7740,
      "салаалара": 7741,
      "идэлээх": 7742,
      "Өлөөн": 7743,
      "өҥө": 7744,
      "намыһах": 7745,
      "Салгын": 7746,
      "тумул": 7747,
      "кэбисп": 7748,
      "Тимофеев": 7749,
      "электр": 7750,
      "##тынньыттан": 7751,
      "65": 7752,
      "Быһ": 7753,
      "Хаан": 7754,
      "Черн": 7755,
      "дэ": 7756,
      "тыс": 7757,
      "уулус": 7758,
      "хоттор": 7759,
      "эһэ": 7760,
      "үп": 7761,
      "##тааҕ": 7762,
      "##оҥҥа": 7763,
      "##ce": 7764,
      "##наан": 7765,
      "##скайга": 7766,
      "ыйга": 7767,
      "алын": 7768,
      "##уутунан": 7769,
      "баһыйар": 7770,
      "1951": 7771,
      "Сибиирдээҕи": 7772,
      "##струк": 7773,
      "сайыннаран": 7774,
      "Барыта": 7775,
      "кумах": 7776,
      "Айылҕаны": 7777,
      "чемпиона": 7778,
      "иhин": 7779,
      "өрөспүүбүлүкэ": 7780,
      "сымнаҕас": 7781,
      "баһылыга": 7782,
      "режисс": 7783,
      "Гол": 7784,
      "Мир": 7785,
      "Ооннь": 7786,
      "По": 7787,
      "ууһ": 7788,
      "хоh": 7789,
      "##до": 7790,
      "##ээйи": 7791,
      "##баҕа": 7792,
      "##ьян": 7793,
      "##5э": 7794,
      "##архай": 7795,
      "##уннар": 7796,
      "туг": 7797,
      "сыла": 7798,
      "##улун": 7799,
      "##имна": 7800,
      "##алардаах": 7801,
      "сиэн": 7802,
      "саҕаламмыт": 7803,
      "160": 7804,
      "испэт": 7805,
      "Александрович": 7806,
      "Павлович": 7807,
      "Геройа": 7808,
      "директ": 7809,
      "Новгородов": 7810,
      "Туйм": 7811,
      "Пари": 7812,
      "Таас": 7813,
      "бан": 7814,
      "бүтт": 7815,
      "дел": 7816,
      "уутун": 7817,
      "##егор": 7818,
      "##лед": 7819,
      "##ыйд": 7820,
      "##цен": 7821,
      "##ание": 7822,
      "диэнн": 7823,
      "##аард": 7824,
      "##ааһыгар": 7825,
      "сириттэн": 7826,
      "бурдук": 7827,
      "куһаҕаннык": 7828,
      "аһыы": 7829,
      "##уурга": 7830,
      "уларытар": 7831,
      "##ммыта": 7832,
      "кэпсиир": 7833,
      "##баттар": 7834,
      "Марха": 7835,
      "Герман": 7836,
      "диэбит": 7837,
      "Манч": 7838,
      "түспүт": 7839,
      "математика": 7840,
      "сэриилэспит": 7841,
      "тэриллии": 7842,
      "Неустроев": 7843,
      "кэргэҥҥэ": 7844,
      "64": 7845,
      "67": 7846,
      "Баш": 7847,
      "ГБУ": 7848,
      "Ха": 7849,
      "Эст": 7850,
      "ааһ": 7851,
      "вир": 7852,
      "иэннээх": 7853,
      "каз": 7854,
      "сут": 7855,
      "туун": 7856,
      "чар": 7857,
      "##ров": 7858,
      "##хов": 7859,
      "##аанн": 7860,
      "##ырҕ": 7861,
      "айыылары": 7862,
      "##лиз": 7863,
      "сайда": 7864,
      "алтан": 7865,
      "истиэп": 7866,
      "биэрд": 7867,
      "үтүөнү": 7868,
      "1949": 7869,
      "##иилээн": 7870,
      "бырайыа": 7871,
      "Италия": 7872,
      "сыһыана": 7873,
      "төрөппүтүн": 7874,
      "эдэрд": 7875,
      "үөскүүрүн": 7876,
      "көлүөнэлэри": 7877,
      "хааччах": 7878,
      "эппит": 7879,
      "күөллэр": 7880,
      "Оннук": 7881,
      "айымньыларын": 7882,
      "Көм": 7883,
      "Казах": 7884,
      "бэрэссэдээтэлэ": 7885,
      "Верхо": 7886,
      "Сойууһун": 7887,
      "ырыынак": 7888,
      "Кэм": 7889,
      "Стар": 7890,
      "Тар": 7891,
      "дин": 7892,
      "зна": 7893,
      "лекс": 7894,
      "пс": 7895,
      "##кат": 7896,
      "##em": 7897,
      "##hин": 7898,
      "##шай": 7899,
      "##уоҥҥа": 7900,
      "ыйыт": 7901,
      "Алтынньыттан": 7902,
      "анараа": 7903,
      "##истан": 7904,
      "үрдүгэ": 7905,
      "хаһаай": 7906,
      "көрдөххө": 7907,
      "Якутскай": 7908,
      "көтөҕ": 7909,
      "киллэрбит": 7910,
      "176": 7911,
      "##ектор": 7912,
      "кинигэтэ": 7913,
      "систиэм": 7914,
      "куртах": 7915,
      "Бэйэтин": 7916,
      "университетын": 7917,
      "сөбө": 7918,
      "дьаһал": 7919,
      "саастааҕар": 7920,
      "##өккө": 7921,
      "бэриллэн": 7922,
      "демократия": 7923,
      "манньыа": 7924,
      "төгүллээх": 7925,
      "Париж": 7926,
      "52": 7927,
      "63": 7928,
      "Ос": 7929,
      "Сыы": 7930,
      "Сэтинньи": 7931,
      "Түр": 7932,
      "Ун": 7933,
      "ааһан": 7934,
      "то": 7935,
      "##иилэр": 7936,
      "##аа5": 7937,
      "##ино": 7938,
      "##ыллара": 7939,
      "сылыгар": 7940,
      "##ракт": 7941,
      "кыст": 7942,
      "##үгү": 7943,
      "этиил": 7944,
      "##атаҕ": 7945,
      "##өлөөх": 7946,
      "##тээҕи": 7947,
      "сорҕ": 7948,
      "толорон": 7949,
      "Итинник": 7950,
      "177": 7951,
      "ситиһэн": 7952,
      "таһааран": 7953,
      "Сэбиэтин": 7954,
      "Михайл": 7955,
      "эйэлээх": 7956,
      "судаарыстыба": 7957,
      "##ооччу": 7958,
      "тэнийэн": 7959,
      "соһуччу": 7960,
      "көмпүүт": 7961,
      "49": 7962,
      "Мас": 7963,
      "Сит": 7964,
      "куу": 7965,
      "ром": 7966,
      "сом": 7967,
      "фун": 7968,
      "ыйд": 7969,
      "##лэй": 7970,
      "##нев": 7971,
      "##ut": 7972,
      "##гир": 7973,
      "##гылар": 7974,
      "##эрбит": 7975,
      "##элэринэн": 7976,
      "##ыылларын": 7977,
      "##бытыгар": 7978,
      "##эннэ": 7979,
      "киh": 7980,
      "киэн": 7981,
      "ааттаммыта": 7982,
      "ситиһэ": 7983,
      "1919": 7984,
      "учууталл": 7985,
      "сыаналаах": 7986,
      "арыйар": 7987,
      "##форм": 7988,
      "сааһыттан": 7989,
      "ави": 7990,
      "тустарынан": 7991,
      "тылдьыта": 7992,
      "технология": 7993,
      "латыын": 7994,
      "факультетын": 7995,
      "Ахсынньы": 7996,
      "Саамай": 7997,
      "Та": 7998,
      "Тард": 7999,
      "Фин": 8000,
      "Ыста": 8001,
      "асс": 8002,
      "маҕаһыын": 8003,
      "тон": 8004,
      "##толоох": 8005,
      "##ыала": 8006,
      "##ность": 8007,
      "##иэх": 8008,
      "##вест": 8009,
      "##уоха": 8010,
      "##бытынан": 8011,
      "бух": 8012,
      "табан": 8013,
      "Аны": 8014,
      "үөрэниитэ": 8015,
      "152": 8016,
      "Бүлүүтээҕи": 8017,
      "тэрийэн": 8018,
      "тэрийбит": 8019,
      "Киинэ": 8020,
      "ардыларынан": 8021,
      "эппиэтин": 8022,
      "автоном": 8023,
      "##үүлэрин": 8024,
      "архыы": 8025,
      "төннөн": 8026,
      "уокурук": 8027,
      "##эхпитинэ": 8028,
      "композит": 8029,
      "хоhоон": 8030,
      "Биирд": 8031,
      "бут": 8032,
      "вы": 8033,
      "паар": 8034,
      "##вед": 8035,
      "##ow": 8036,
      "##ёр": 8037,
      "##РО": 8038,
      "##арар": 8039,
      "##утунан": 8040,
      "өйүттэн": 8041,
      "кэмит": 8042,
      "үөнн": 8043,
      "дойдуларын": 8044,
      "хайалара": 8045,
      "баһый": 8046,
      "саҕалаабыт": 8047,
      "##иллээх": 8048,
      "##уунан": 8049,
      "таһаарбыта": 8050,
      "112": 8051,
      "өрүттээҕин": 8052,
      "төрөппүттэрэ": 8053,
      "##аатыр": 8054,
      "##ятель": 8055,
      "туһалааҕын": 8056,
      "сулууспалаабыт": 8057,
      "майгынныыр": 8058,
      "##████████": 8059,
      "ситиспит": 8060,
      "Сайын": 8061,
      "Академиятын": 8062,
      "тосту": 8063,
      "библи": 8064,
      "54": 8065,
      "51": 8066,
      "ССК": 8067,
      "Тыын": 8068,
      "баан": 8069,
      "бөҕ": 8070,
      "мор": 8071,
      "поч": 8072,
      "##түк": 8073,
      "##гэй": 8074,
      "##ak": 8075,
      "##ааск": 8076,
      "##ахп": 8077,
      "##ско": 8078,
      "##оле": 8079,
      "курд": 8080,
      "олохп": 8081,
      "##эллэринэн": 8082,
      "##ели": 8083,
      "##циялар": 8084,
      "Алтынньы": 8085,
      "Арх": 8086,
      "өттүлэр": 8087,
      "кэск": 8088,
      "##уллубуттара": 8089,
      "иҥэринэн": 8090,
      "устун": 8091,
      "тохт": 8092,
      "##езд": 8093,
      "##роҥҥа": 8094,
      "партийнай": 8095,
      "бэрээдэги": 8096,
      "сүүс": 8097,
      "сэд": 8098,
      "сабыдыал": 8099,
      "Кэргэн": 8100,
      "ааптара": 8101,
      "организм": 8102,
      "Пекар": 8103,
      "Сивцев": 8104,
      "Туймаада": 8105,
      "ССКП": 8106,
      "Баһыл": 8107,
      "Лонд": 8108,
      "Сот": 8109,
      "аh": 8110,
      "аҥа": 8111,
      "бичик": 8112,
      "фрон": 8113,
      "##лин": 8114,
      "##нига": 8115,
      "##бол": 8116,
      "##вара": 8117,
      "##уллара": 8118,
      "##ппар": 8119,
      "Аль": 8120,
      "прем": 8121,
      "куһаҕанын": 8122,
      "суолу": 8123,
      "уларыйыылар": 8124,
      "кэмнээх": 8125,
      "144": 8126,
      "омуктарга": 8127,
      "ыарыһ": 8128,
      "Васильева": 8129,
      "квад": 8130,
      "спортс": 8131,
      "билинэр": 8132,
      "сынньал": 8133,
      "##оже": 8134,
      "улаатыннарар": 8135,
      "Валер": 8136,
      "боруобалаан": 8137,
      "ааптар": 8138,
      "эҥин": 8139,
      "Уопсай": 8140,
      "комсомол": 8141,
      "Чуумпу": 8142,
      "халбаҥн": 8143,
      "Кыл": 8144,
      "Мо": 8145,
      "айд": 8146,
      "ук": 8147,
      "##хуо": 8148,
      "##ээннэр": 8149,
      "##же": 8150,
      "##онова": 8151,
      "##ууларын": 8152,
      "дьаh": 8153,
      "##эримм": 8154,
      "##ока": 8155,
      "##алартан": 8156,
      "Олунньу": 8157,
      "кэллэ": 8158,
      "үчүгэйин": 8159,
      "##став": 8160,
      "альбом": 8161,
      "ахсааннарыгар": 8162,
      "сахабыт": 8163,
      "кыайыыны": 8164,
      "көрдө": 8165,
      "инк": 8166,
      "оскуолата": 8167,
      "үөрэхтээхтэр": 8168,
      "178": 8169,
      "##аласка": 8170,
      "дьиҥ": 8171,
      "1913": 8172,
      "маҥан": 8173,
      "Москубаҕа": 8174,
      "дьиэҕэ": 8175,
      "университетыгар": 8176,
      "Новос": 8177,
      "хойутаан": 8178,
      "Нууччалар": 8179,
      "босхо": 8180,
      "##үөхтээх": 8181,
      "##ооһун": 8182,
      "Ефимов": 8183,
      "көҕүл": 8184,
      "Захар": 8185,
      "дьулуурдаах": 8186,
      "аэроп": 8187,
      "компьютер": 8188,
      "Бэрэ": 8189,
      "Сид": 8190,
      "Эбэ": 8191,
      "ааҥ": 8192,
      "бич": 8193,
      "бэтэрэ": 8194,
      "мод": 8195,
      "уh": 8196,
      "##тер": 8197,
      "##ыг": 8198,
      "##ни": 8199,
      "##op": 8200,
      "##ay": 8201,
      "##стэ": 8202,
      "##старыгар": 8203,
      "##ико": 8204,
      "саныы": 8205,
      "##ометр": 8206,
      "сылдьаллара": 8207,
      "хаалара": 8208,
      "турбут": 8209,
      "##олоругар": 8210,
      "хайҕ": 8211,
      "##иннар": 8212,
      "тирэх": 8213,
      "көстүбэт": 8214,
      "туой": 8215,
      "1916": 8216,
      "солкуо": 8217,
      "оҥорботтор": 8218,
      "сыаналыыр": 8219,
      "##естр": 8220,
      "Өйө": 8221,
      "##ыллыбыттара": 8222,
      "политика": 8223,
      "Атл": 8224,
      "Аустралия": 8225,
      "Граждан": 8226,
      "валю": 8227,
      "өллөҕүнэ": 8228,
      "урбааннь": 8229,
      "Бэл": 8230,
      "Дон": 8231,
      "Над": 8232,
      "Хап": 8233,
      "дуол": 8234,
      "##ле": 8235,
      "##иэхтээх": 8236,
      "##бук": 8237,
      "##цуз": 8238,
      "##яз": 8239,
      "##90": 8240,
      "кыта": 8241,
      "##ерк": 8242,
      "##ерал": 8243,
      "тылбытын": 8244,
      "арааһа": 8245,
      "оҕуруо": 8246,
      "кэмтэн": 8247,
      "##эллэриттэн": 8248,
      "сиртэн": 8249,
      "киирэ": 8250,
      "иликтэр": 8251,
      "кыраайы": 8252,
      "172": 8253,
      "умна": 8254,
      "эргин": 8255,
      "этибит": 8256,
      "Евдок": 8257,
      "Александра": 8258,
      "нарком": 8259,
      "институтун": 8260,
      "Америкаҕа": 8261,
      "ордон": 8262,
      "өртүттэн": 8263,
      "Вел": 8264,
      "Тэрил": 8265,
      "Ын": 8266,
      "наһаа": 8267,
      "сиэм": 8268,
      "хаста": 8269,
      "Өкт": 8270,
      "##ыгын": 8271,
      "##үмм": 8272,
      "##ag": 8273,
      "##уктарын": 8274,
      "##ере": 8275,
      "иһиитин": 8276,
      "сылдьабыт": 8277,
      "##ахсыт": 8278,
      "##эбиит": 8279,
      "таҥаст": 8280,
      "прот": 8281,
      "181": 8282,
      "кыайыы": 8283,
      "кинээ": 8284,
      "уларыйыыта": 8285,
      "уларыйыылары": 8286,
      "быраҕ": 8287,
      "ыарах": 8288,
      "устудь": 8289,
      "##ератор": 8290,
      "сабаҕ": 8291,
      "Семеновна": 8292,
      "орден": 8293,
      "быыб": 8294,
      "млрд": 8295,
      "толкуйдуур": 8296,
      "билэбит": 8297,
      "майгынын": 8298,
      "күҥҥэ": 8299,
      "##сыарда": 8300,
      "бүтэһик": 8301,
      "##аатахха": 8302,
      "Испания": 8303,
      "улааттаҕына": 8304,
      "чаҕыл": 8305,
      "Тө": 8306,
      "аг": 8307,
      "маг": 8308,
      "порт": 8309,
      "##не": 8310,
      "##үҥн": 8311,
      "##tp": 8312,
      "##аровскай": 8313,
      "##ааттар": 8314,
      "##энэллэр": 8315,
      "##уктара": 8316,
      "##утуу": 8317,
      "быһыытыгар": 8318,
      "түҥ": 8319,
      "##эхтик": 8320,
      "туттулла": 8321,
      "омуга": 8322,
      "сэриитэ": 8323,
      "учааста": 8324,
      "хараҕа": 8325,
      "саҕаланан": 8326,
      "##ибир": 8327,
      "ыараха": 8328,
      "##айыак": 8329,
      "өлөн": 8330,
      "араарыы": 8331,
      "сирдэр": 8332,
      "баайын": 8333,
      "Федерация": 8334,
      "хоһоонун": 8335,
      "мунньуллан": 8336,
      "##оммун": 8337,
      "Сылгы": 8338,
      "түбэсп": 8339,
      "оонньууларын": 8340,
      "Индигир": 8341,
      "эйэл": 8342,
      "кээмэйэ": 8343,
      "көрөөчч": 8344,
      "туhунан": 8345,
      "аһылыгы": 8346,
      "Захаров": 8347,
      "иҥэриллибитэ": 8348,
      "Сэмэн": 8349,
      "St": 8350,
      "За": 8351,
      "Төһө": 8352,
      "бит": 8353,
      "биэ": 8354,
      "фили": 8355,
      "##уh": 8356,
      "##тэр": 8357,
      "##лю": 8358,
      "##бо": 8359,
      "##һи": 8360,
      "##oc": 8361,
      "##анара": 8362,
      "##инаҕа": 8363,
      "##але": 8364,
      "##уйах": 8365,
      "Оль": 8366,
      "Олоҥ": 8367,
      "саҥатыгар": 8368,
      "тахсарын": 8369,
      "эбилл": 8370,
      "##аннаан": 8371,
      "тулуура": 8372,
      "тулалыыр": 8373,
      "##ольскай": 8374,
      "бэрэсидь": 8375,
      "бэйэбит": 8376,
      "умнуб": 8377,
      "салаатыгар": 8378,
      "сүрдээх": 8379,
      "Груз": 8380,
      "бород": 8381,
      "Сибииргэ": 8382,
      "культуратын": 8383,
      "тылбаасчыт": 8384,
      "Матв": 8385,
      "холобурд": 8386,
      "тахсыбыттара": 8387,
      "##облем": 8388,
      "Баһылай": 8389,
      "ru": 8390,
      "Сүө": 8391,
      "Тымн": 8392,
      "гр": 8393,
      "тыҥ": 8394,
      "##катын": 8395,
      "##th": 8396,
      "##арта": 8397,
      "##ылын": 8398,
      "##иктар": 8399,
      "##икатын": 8400,
      "дьоҕу": 8401,
      "үөрэҕириитин": 8402,
      "куттар": 8403,
      "көскө": 8404,
      "өйбүт": 8405,
      "##ыбакка": 8406,
      "дойдуттан": 8407,
      "ороск": 8408,
      "биллэрдик": 8409,
      "##ейц": 8410,
      "хамсыыр": 8411,
      "##ордар": 8412,
      "бирии": 8413,
      "идэтин": 8414,
      "тутулуктанан": 8415,
      "ытааһын": 8416,
      "арыый": 8417,
      "солбуйаачч": 8418,
      "дакаастыыр": 8419,
      "бырабыы": 8420,
      "Горнай": 8421,
      "Советскай": 8422,
      "буорту": 8423,
      "кэпсээнн": 8424,
      "отделение": 8425,
      "Саввин": 8426,
      "Петербург": 8427,
      "##талыстыб": 8428,
      "http": 8429,
      "72": 8430,
      "Бэ": 8431,
      "Ди": 8432,
      "Прав": 8433,
      "Ток": 8434,
      "Тимир": 8435,
      "механ": 8436,
      "сэһ": 8437,
      "хаh": 8438,
      "цент": 8439,
      "##оев": 8440,
      "##яч": 8441,
      "##алыгар": 8442,
      "кый": 8443,
      "дьылҕ": 8444,
      "##иэпп": 8445,
      "##иэккэ": 8446,
      "##эҕэл": 8447,
      "##арыны": 8448,
      "##эһит": 8449,
      "##эһинн": 8450,
      "арай": 8451,
      "этиилэрин": 8452,
      "##аллары": 8453,
      "айбыт": 8454,
      "##ссий": 8455,
      "тахсара": 8456,
      "##аайах": 8457,
      "##стаан": 8458,
      "туттунан": 8459,
      "Арыы": 8460,
      "кыһы": 8461,
      "итэҕэлэ": 8462,
      "таҥаралаах": 8463,
      "таһаарбыт": 8464,
      "аймахтара": 8465,
      "##янд": 8466,
      "оннооҕор": 8467,
      "сөбүлээн": 8468,
      "конц": 8469,
      "эттээх": 8470,
      "ырыата": 8471,
      "үгэстэр": 8472,
      "дуоһун": 8473,
      "уҥуоҕ": 8474,
      "воен": 8475,
      "сылдьыбыттар": 8476,
      "Андреевич": 8477,
      "Яковлев": 8478,
      "Уйбаан": 8479,
      "сойуу": 8480,
      "Верхоянскай": 8481,
      "квадрат": 8482,
      "66": 8483,
      "асп": 8484,
      "иэст": 8485,
      "перс": 8486,
      "##төр": 8487,
      "##рид": 8488,
      "##ыар": 8489,
      "##сий": 8490,
      "##бот": 8491,
      "##ён": 8492,
      "##ынд": 8493,
      "##орор": 8494,
      "##игээ": 8495,
      "тутуллан": 8496,
      "итини": 8497,
      "оҥороруттан": 8498,
      "истэригэр": 8499,
      "##бэс": 8500,
      "##ись": 8501,
      "кулууп": 8502,
      "устуоруй": 8503,
      "кэпсэт": 8504,
      "образ": 8505,
      "##естер": 8506,
      "##роном": 8507,
      "##ыллыбат": 8508,
      "арыгыга": 8509,
      "##өллөрө": 8510,
      "сытыы": 8511,
      "наадалаах": 8512,
      "айылҕаттан": 8513,
      "итэҕэйэр": 8514,
      "корп": 8515,
      "Төрөппүт": 8516,
      "хаарты": 8517,
      "үүнээйилэр": 8518,
      "##элдьи": 8519,
      "сүнньүнэн": 8520,
      "нэди": 8521,
      "Анастас": 8522,
      "Япония": 8523,
      "Компания": 8524,
      "Баст": 8525,
      "Государ": 8526,
      "Екат": 8527,
      "Тыылл": 8528,
      "биитэр": 8529,
      "суур": 8530,
      "тэрэ": 8531,
      "үбүл": 8532,
      "Өлб": 8533,
      "##кина": 8534,
      "##юс": 8535,
      "##жд": 8536,
      "##алын": 8537,
      "##овед": 8538,
      "билэннэр": 8539,
      "##ааннар": 8540,
      "##гэс": 8541,
      "иһэллэрин": 8542,
      "##аастан": 8543,
      "##уурун": 8544,
      "##иннэҕинэ": 8545,
      "ааттарын": 8546,
      "нац": 8547,
      "Сиргэ": 8548,
      "уустарыгар": 8549,
      "баһылык": 8550,
      "талааннаах": 8551,
      "##ингв": 8552,
      "көмөлөсп": 8553,
      "бириэмэтигэр": 8554,
      "таһыма": 8555,
      "миниист": 8556,
      "1000": 8557,
      "сымыы": 8558,
      "хаалларан": 8559,
      "кафед": 8560,
      "империя": 8561,
      "произ": 8562,
      "Киһини": 8563,
      "Швейц": 8564,
      "Варвара": 8565,
      "пуонд": 8566,
      "Маҥнай": 8567,
      "кураанах": 8568,
      "Екатер": 8569,
      "78": 8570,
      "Ах": 8571,
      "Дав": 8572,
      "Сем": 8573,
      "Тул": 8574,
      "мэн": 8575,
      "фл": 8576,
      "чааһа": 8577,
      "##тыйа": 8578,
      "##кый": 8579,
      "##инскэй": 8580,
      "##орус": 8581,
      "##эхси": 8582,
      "кэмиттэн": 8583,
      "эмэни": 8584,
      "сиринээҕи": 8585,
      "быст": 8586,
      "харааб": 8587,
      "##урата": 8588,
      "команд": 8589,
      "төрүттэрин": 8590,
      "биллибитэ": 8591,
      "хонуу": 8592,
      "тэҥнэһ": 8593,
      "мунньуст": 8594,
      "##ууларыттан": 8595,
      "##ститу": 8596,
      "ыраахтааҕ": 8597,
      "Сороҕор": 8598,
      "Прокопьевич": 8599,
      "##шевскай": 8600,
      "харыстабыл": 8601,
      "чопчу": 8602,
      "кэтээн": 8603,
      "субъега": 8604,
      "библиот": 8605,
      "Новосибир": 8606,
      "Гражданскай": 8607,
      "Гера": 8608,
      "Йор": 8609,
      "Кыргы": 8610,
      "Лат": 8611,
      "Уор": 8612,
      "пенс": 8613,
      "удь": 8614,
      "##уа": 8615,
      "##ыахпыт": 8616,
      "##ния": 8617,
      "##иинэн": 8618,
      "##iv": 8619,
      "##аасс": 8620,
      "##ахов": 8621,
      "##утан": 8622,
      "билбит": 8623,
      "санаал": 8624,
      "аралдь": 8625,
      "##аннары": 8626,
      "күндү": 8627,
      "киирии": 8628,
      "суохтар": 8629,
      "дойдулара": 8630,
      "өрөбөлүүсс": 8631,
      "быһыыларыттан": 8632,
      "эбэн": 8633,
      "биирдиилээн": 8634,
      "араарар": 8635,
      "аҕыйыыр": 8636,
      "##ыҥылар": 8637,
      "уһулу": 8638,
      "аймахтар": 8639,
      "уокка": 8640,
      "кэргэнин": 8641,
      "ыыппыт": 8642,
      "метод": 8643,
      "өйдөөбөт": 8644,
      "кавалера": 8645,
      "промышленн": 8646,
      "61": 8647,
      "Суол": 8648,
      "Сард": 8649,
      "Туһ": 8650,
      "##бил": 8651,
      "##бинэ": 8652,
      "##шин": 8653,
      "##ac": 8654,
      "##аакы": 8655,
      "##алык": 8656,
      "##ализм": 8657,
      "##таммыт": 8658,
      "##стэн": 8659,
      "сылын": 8660,
      "дойдутун": 8661,
      "сөк": 8662,
      "итии": 8663,
      "көрдөһ": 8664,
      "Анаабыр": 8665,
      "киллэрэ": 8666,
      "1915": 8667,
      "Илья": 8668,
      "Федерациятын": 8669,
      "дьарыктамм": 8670,
      "##үбүтэ": 8671,
      "Урут": 8672,
      "ойуунн": 8673,
      "буккуй": 8674,
      "муннук": 8675,
      "##үөхтэрин": 8676,
      "Григорьевич": 8677,
      "колхозка": 8678,
      "мэйии": 8679,
      "якутов": 8680,
      "Ыйааҕынан": 8681,
      "президен": 8682,
      "федеральнай": 8683,
      "Максим": 8684,
      "Леон": 8685,
      "Анастасия": 8686,
      "Браз": 8687,
      "Вост": 8688,
      "Ост": 8689,
      "Тер": 8690,
      "жив": 8691,
      "минээн": 8692,
      "төһ": 8693,
      "##еология": 8694,
      "##ктар": 8695,
      "##хой": 8696,
      "##збек": 8697,
      "##алыын": 8698,
      "##итии": 8699,
      "##урнал": 8700,
      "##охс": 8701,
      "##дьии": 8702,
      "##иэни": 8703,
      "көмүллүбүт": 8704,
      "аҕыс": 8705,
      "уруу": 8706,
      "##ствен": 8707,
      "уратытын": 8708,
      "үгэстэрэ": 8709,
      "рез": 8710,
      "175": 8711,
      "кэмнэртэн": 8712,
      "таҥараҕа": 8713,
      "сөбүлээ": 8714,
      "төрүтэ": 8715,
      "испит": 8716,
      "абааһ": 8717,
      "авт": 8718,
      "грам": 8719,
      "Нууччалыы": 8720,
      "кумааҕы": 8721,
      "тиэх": 8722,
      "Кыыс": 8723,
      "үрдүктүк": 8724,
      "бэрэстэбиит": 8725,
      "призера": 8726,
      "Манчаары": 8727,
      "Атаах": 8728,
      "Баҕа": 8729,
      "Маайа": 8730,
      "Нат": 8731,
      "Слов": 8732,
      "сыб": 8733,
      "сэһэн": 8734,
      "тата": 8735,
      "шта": 8736,
      "##лер": 8737,
      "##бор": 8738,
      "##АТ": 8739,
      "##og": 8740,
      "##НТ": 8741,
      "оҕонньор": 8742,
      "барарын": 8743,
      "##оку": 8744,
      "##лиц": 8745,
      "истэхтэринэ": 8746,
      "тэпт": 8747,
      "эбээн": 8748,
      "сатыыллара": 8749,
      "көстүү": 8750,
      "ыарыыта": 8751,
      "164": 8752,
      "##ствота": 8753,
      "солб": 8754,
      "ылбыттара": 8755,
      "баһылааһын": 8756,
      "##ектив": 8757,
      "сүпп": 8758,
      "Республиката": 8759,
      "тутулуктарын": 8760,
      "Дани": 8761,
      "төбө": 8762,
      "архит": 8763,
      "албын": 8764,
      "сибээстээх": 8765,
      "сурунаалга": 8766,
      "быhыытынан": 8767,
      "сэбиэдиссэйэ": 8768,
      "Прокопий": 8769,
      "Оччотооҕу": 8770,
      "иккитэ": 8771,
      "итирэн": 8772,
      "бардаҕына": 8773,
      "сүрүннээн": 8774,
      "Татьяна": 8775,
      "Тыыллыма": 8776,
      "Бизнес": 8777,
      "Габ": 8778,
      "Дорҕоон": 8779,
      "Сим": 8780,
      "Чех": 8781,
      "Яр": 8782,
      "аал": 8783,
      "гран": 8784,
      "дух": 8785,
      "зем": 8786,
      "малы": 8787,
      "нас": 8788,
      "нак": 8789,
      "суор": 8790,
      "так": 8791,
      "эйэ": 8792,
      "##тааҕа": 8793,
      "##кова": 8794,
      "##бы": 8795,
      "##ских": 8796,
      "диал": 8797,
      "дисс": 8798,
      "##иккэ": 8799,
      "##иирин": 8800,
      "билиитэ": 8801,
      "төрүүр": 8802,
      "при": 8803,
      "хайаларын": 8804,
      "##уутуттан": 8805,
      "ааттыыллара": 8806,
      "үөрэнэрэ": 8807,
      "куораты": 8808,
      "##ологияҕа": 8809,
      "көтө": 8810,
      "163": 8811,
      "уһаар": 8812,
      "көрсүһ": 8813,
      "##III": 8814,
      "##ice": 8815,
      "граф": 8816,
      "Михайлов": 8817,
      "биис": 8818,
      "наҕараадаламмыт": 8819,
      "телев": 8820,
      "уопсастыба": 8821,
      "##уммут": 8822,
      "революция": 8823,
      "Түүлгэ": 8824,
      "ветерана": 8825,
      "оҥорботторун": 8826,
      "Эй": 8827,
      "гир": 8828,
      "гимна": 8829,
      "мол": 8830,
      "##оҥҥо": 8831,
      "##берг": 8832,
      "##ми": 8833,
      "##ov": 8834,
      "##ИК": 8835,
      "##уота": 8836,
      "##ать": 8837,
      "##атов": 8838,
      "буой": 8839,
      "##арыыны": 8840,
      "буолаллара": 8841,
      "куттан": 8842,
      "барбакка": 8843,
      "айбыта": 8844,
      "үөл": 8845,
      "##ктя": 8846,
      "##ахтары": 8847,
      "киһилээх": 8848,
      "истиил": 8849,
      "##аммыттар": 8850,
      "омуктарын": 8851,
      "өттүлэрэ": 8852,
      "саҕан": 8853,
      "##үҥү": 8854,
      "таҥарабыт": 8855,
      "аҥардас": 8856,
      "ууска": 8857,
      "хаалбат": 8858,
      "сыаната": 8859,
      "##еева": 8860,
      "музыкальнай": 8861,
      "Канаада": 8862,
      "детсад": 8863,
      "Гоголев": 8864,
      "Плат": 8865,
      "олимпийскай": 8866,
      "##биилэhэр": 8867,
      "58": 8868,
      "68": 8869,
      "Бир": 8870,
      "Баһа": 8871,
      "Чолбон": 8872,
      "иҥн": 8873,
      "отон": 8874,
      "поп": 8875,
      "тиит": 8876,
      "тикс": 8877,
      "Үөд": 8878,
      "үүмм": 8879,
      "##пов": 8880,
      "##дээ": 8881,
      "##аттара": 8882,
      "##ныы": 8883,
      "##һин": 8884,
      "##иэҕ": 8885,
      "##алларынан": 8886,
      "##аныыны": 8887,
      "##таран": 8888,
      "элбэт": 8889,
      "киил": 8890,
      "киинн": 8891,
      "быһаарыытынан": 8892,
      "иҥэрэн": 8893,
      "көстүүтэ": 8894,
      "174": 8895,
      "Бүлүүгэ": 8896,
      "баайы": 8897,
      "##ехн": 8898,
      "тардан": 8899,
      "арыйан": 8900,
      "кубулуйбут": 8901,
      "Кинини": 8902,
      "синньигэс": 8903,
      "Национальнай": 8904,
      "чуолкай": 8905,
      "элем": 8906,
      "Мантан": 8907,
      "аҕалан": 8908,
      "хоһооннорун": 8909,
      "кыыһыр": 8910,
      "көрбүтэ": 8911,
      "гражданина": 8912,
      "Үтүө": 8913,
      "кистэлэҥ": 8914,
      "дьоппуон": 8915,
      "74": 8916,
      "71": 8917,
      "84": 8918,
      "Бөт": 8919,
      "Кана": 8920,
      "Сайыҥҥы": 8921,
      "Ут": 8922,
      "Ыл": 8923,
      "бокс": 8924,
      "иир": 8925,
      "кына": 8926,
      "муор": 8927,
      "нуор": 8928,
      "од": 8929,
      "пес": 8930,
      "ход": 8931,
      "чаас": 8932,
      "##екка": 8933,
      "##оци": 8934,
      "##культ": 8935,
      "##чж": 8936,
      "##ha": 8937,
      "##уорд": 8938,
      "##алаабыта": 8939,
      "##иһинэн": 8940,
      "дьүһүн": 8941,
      "дьыала": 8942,
      "##аһыы": 8943,
      "##омат": 8944,
      "##имн": 8945,
      "##айдара": 8946,
      "бэйэм": 8947,
      "##үрү": 8948,
      "##елов": 8949,
      "туругун": 8950,
      "##ративнай": 8951,
      "сахалары": 8952,
      "##оһут": 8953,
      "##ооннь": 8954,
      "##эммэт": 8955,
      "##өҕү": 8956,
      "##өҕүн": 8957,
      "киллэрии": 8958,
      "ситиһиллэр": 8959,
      "ситиһиигэ": 8960,
      "##элэрбит": 8961,
      "Кыайыы": 8962,
      "санааларыттан": 8963,
      "Марк": 8964,
      "уһук": 8965,
      "##and": 8966,
      "##үллэн": 8967,
      "сэриилээн": 8968,
      "биист": 8969,
      "холобура": 8970,
      "##иада": 8971,
      "народнай": 8972,
      "этнограф": 8973,
      "Польша": 8974,
      "Халлаан": 8975,
      "драмат": 8976,
      "период": 8977,
      "олохпутугар": 8978,
      "Сотору": 8979,
      "59": 8980,
      "Бос": 8981,
      "Кав": 8982,
      "Мон": 8983,
      "сл": 8984,
      "чэр": 8985,
      "чор": 8986,
      "##иҥҥэ": 8987,
      "##ec": 8988,
      "##ьер": 8989,
      "##ОН": 8990,
      "##айн": 8991,
      "##ууст": 8992,
      "дипл": 8993,
      "##иката": 8994,
      "дьолл": 8995,
      "санаар": 8996,
      "##ерта": 8997,
      "билэрэ": 8998,
      "кус": 8999,
      "##ыыларынан": 9000,
      "оҕус": 9001,
      "##окут": 9002,
      "айа": 9003,
      "##абын": 9004,
      "киирбиттэрэ": 9005,
      "суохтаах": 9006,
      "##аабынай": 9007,
      "##алаахтар": 9008,
      "2017": 9009,
      "тиийимт": 9010,
      "быраҕан": 9011,
      "өлүү": 9012,
      "179": 9013,
      "туос": 9014,
      "148": 9015,
      "тэҥнэһии": 9016,
      "кинигэни": 9017,
      "сытан": 9018,
      "Үөрэх": 9019,
      "дорҕооннорун": 9020,
      "географ": 9021,
      "эмтиир": 9022,
      "музыка": 9023,
      "Геройун": 9024,
      "уопсастыбаннай": 9025,
      "Холбоһ": 9026,
      "көрбөт": 9027,
      "иҥэриллибит": 9028,
      "сибэкк": 9029,
      "төгүрүк": 9030,
      "биһир": 9031,
      "пууна": 9032,
      "Валерий": 9033,
      "87": 9034,
      "88": 9035,
      "Ел": 9036,
      "Кыт": 9037,
      "Лап": 9038,
      "Мор": 9039,
      "Сырд": 9040,
      "как": 9041,
      "##hыл": 9042,
      "##цы": 9043,
      "##ций": 9044,
      "##иһэ": 9045,
      "дьикт": 9046,
      "##урга": 9047,
      "##убута": 9048,
      "киь": 9049,
      "үөрэтиини": 9050,
      "##астар": 9051,
      "##үҥк": 9052,
      "Улаатан": 9053,
      "национ": 9054,
      "бэйэлэриттэн": 9055,
      "көстөллөр": 9056,
      "баҕараллар": 9057,
      "170": 9058,
      "атыы": 9059,
      "кэпсэнэр": 9060,
      "түүлээх": 9061,
      "чилиэнинэн": 9062,
      "кирт": 9063,
      "ыалдьар": 9064,
      "сымыйа": 9065,
      "##есса": 9066,
      "Григорий": 9067,
      "Эллэй": 9068,
      "Ыраах": 9069,
      "тэллэй": 9070,
      "дириэктэрэ": 9071,
      "гражданскай": 9072,
      "томтор": 9073,
      "олохтоммута": 9074,
      "категор": 9075,
      "##намя": 9076,
      "Венгр": 9077,
      "бойобуоданан": 9078,
      "Красно": 9079,
      "манньыат": 9080,
      "Харыстас": 9081,
      "АлмаС": 9082,
      "Уһук": 9083,
      "кыһыҥҥы": 9084,
      "Кара": 9085,
      "Кэб": 9086,
      "Мед": 9087,
      "Сым": 9088,
      "акк": 9089,
      "гор": 9090,
      "фроҥҥа": 9091,
      "##иэй": 9092,
      "##ul": 9093,
      "##хал": 9094,
      "##АН": 9095,
      "##тта": 9096,
      "##орун": 9097,
      "##ларынан": 9098,
      "##асов": 9099,
      "##эрээ": 9100,
      "##эми": 9101,
      "барбыттара": 9102,
      "кэлии": 9103,
      "##үттэрин": 9104,
      "##ааччылара": 9105,
      "##истическай": 9106,
      "истэ": 9107,
      "баз": 9108,
      "табаары": 9109,
      "сүрэх": 9110,
      "тирии": 9111,
      "туохтан": 9112,
      "иҥмит": 9113,
      "##охторо": 9114,
      "Федот": 9115,
      "арыг": 9116,
      "арыгыл": 9117,
      "уурааҕынан": 9118,
      "тутулуктааҕын": 9119,
      "таhынан": 9120,
      "харыстыырга": 9121,
      "итэҕэли": 9122,
      "историятын": 9123,
      "теория": 9124,
      "##убатор": 9125,
      "класс": 9126,
      "баайдар": 9127,
      "биэрэп": 9128,
      "олорбуттар": 9129,
      "Холбоh": 9130,
      "үрдүктээх": 9131,
      "киирдэҕинэ": 9132,
      "училищены": 9133,
      "Анатолий": 9134,
      "директора": 9135,
      "бырабыыталыстыб": 9136,
      "военком": 9137,
      "in": 9138,
      "АЛ": 9139,
      "Сом": 9140,
      "Томп": 9141,
      "Уоб": 9142,
      "бөрө": 9143,
      "саҕа": 9144,
      "сааһын": 9145,
      "тэл": 9146,
      "халыы": 9147,
      "ыра": 9148,
      "эккэ": 9149,
      "##чев": 9150,
      "##сон": 9151,
      "##илэринэн": 9152,
      "куттаах": 9153,
      "##ами": 9154,
      "##ппат": 9155,
      "##ыйыы": 9156,
      "проблем": 9157,
      "##аастарын": 9158,
      "баарынан": 9159,
      "улаатарын": 9160,
      "халл": 9161,
      "булчут": 9162,
      "156": 9163,
      "дьайыытын": 9164,
      "1911": 9165,
      "област": 9166,
      "билиҥҥ": 9167,
      "##игэдь": 9168,
      "##тахха": 9169,
      "арыйбыта": 9170,
      "мөлтүүр": 9171,
      "Егоровна": 9172,
      "##щество": 9173,
      "Республика": 9174,
      "Семенов": 9175,
      "##ышев": 9176,
      "хатыланан": 9177,
      "тупсаран": 9178,
      "опера": 9179,
      "Саввич": 9180,
      "начальн": 9181,
      "олорбуттара": 9182,
      "стрел": 9183,
      "Азияҕа": 9184,
      "састаабыгар": 9185,
      "кыаллыбат": 9186,
      "министер": 9187,
      "сопхуос": 9188,
      "Тардыытыгар": 9189,
      "инкубатор": 9190,
      "Екатерина": 9191,
      "99": 9192,
      "Вит": 9193,
      "Гу": 9194,
      "бел": 9195,
      "бааһын": 9196,
      "барыны": 9197,
      "ве": 9198,
      "вол": 9199,
      "мөкк": 9200,
      "ыһы": 9201,
      "Өйд": 9202,
      "##иад": 9203,
      "##батах": 9204,
      "##үстэрэ": 9205,
      "##АР": 9206,
      "##́н": 9207,
      "##иргэт": 9208,
      "куттарын": 9209,
      "санааттан": 9210,
      "##дьа": 9211,
      "араҕас": 9212,
      "этиитэ": 9213,
      "улааты": 9214,
      "биэрэрэ": 9215,
      "үтүрүй": 9216,
      "халыҥ": 9217,
      "куораттарга": 9218,
      "##иллэ": 9219,
      "ойох": 9220,
      "иннин": 9221,
      "##аллык": 9222,
      "##аабытын": 9223,
      "оонньо": 9224,
      "социал": 9225,
      "тардар": 9226,
      "ууруллан": 9227,
      "түүлгэ": 9228,
      "ыарыылар": 9229,
      "##ard": 9230,
      "баттах": 9231,
      "дакааста": 9232,
      "ойууннар": 9233,
      "кыыллары": 9234,
      "систематын": 9235,
      "бэрээдэктээх": 9236,
      "көҕүр": 9237,
      "Түмэн": 9238,
      "ылыммыт": 9239,
      "Борисов": 9240,
      "Оскуола": 9241,
      "Литерат": 9242,
      "кырдьаҕастар": 9243,
      "ниэмэс": 9244,
      "Англия": 9245,
      "инженер": 9246,
      "чараас": 9247,
      "сөкүүн": 9248,
      "тиэхин": 9249,
      "саҕанааҕы": 9250,
      "98": 9251,
      "Га": 9252,
      "Ра": 9253,
      "Сии": 9254,
      "Сул": 9255,
      "Тэ": 9256,
      "Там": 9257,
      "дох": 9258,
      "ста": 9259,
      "##очч": 9260,
      "##лянд": 9261,
      "##үчч": 9262,
      "##алияҕа": 9263,
      "##ларыттан": 9264,
      "##итарнай": 9265,
      "##уннаах": 9266,
      "туь": 9267,
      "##рдарга": 9268,
      "дьоммут": 9269,
      "##эһис": 9270,
      "иһэргэ": 9271,
      "киирси": 9272,
      "үлэлээбиттэрэ": 9273,
      "өрүтэ": 9274,
      "илиитин": 9275,
      "##истика": 9276,
      "##адж": 9277,
      "иитиитигэр": 9278,
      "була": 9279,
      "өйдөбүлүн": 9280,
      "дьоһун": 9281,
      "быһаара": 9282,
      "көлүөнэлэрин": 9283,
      "Евс": 9284,
      "##ers": 9285,
      "үксүлэрэ": 9286,
      "энерг": 9287,
      "массыынан": 9288,
      "политическай": 9289,
      "Владимирович": 9290,
      "толкуйдаан": 9291,
      "босхоло": 9292,
      "##рессия": 9293,
      "гыммыт": 9294,
      "бөҕөргөт": 9295,
      "техникум": 9296,
      "үөскээһинигэр": 9297,
      "сэкир": 9298,
      "секретарынан": 9299,
      "препода": 9300,
      "Ген": 9301,
      "Күр": 9302,
      "Коммун": 9303,
      "Лар": 9304,
      "Муора": 9305,
      "Ноб": 9306,
      "чох": 9307,
      "##уск": 9308,
      "##уҥҥа": 9309,
      "##ло": 9310,
      "##рис": 9311,
      "##иилэригэр": 9312,
      "##ьа": 9313,
      "##олит": 9314,
      "кыттан": 9315,
      "##охов": 9316,
      "##ччулаах": 9317,
      "##евод": 9318,
      "көрүүгэ": 9319,
      "##эҕэс": 9320,
      "кэлиэн": 9321,
      "буолууларын": 9322,
      "ант": 9323,
      "кыракый": 9324,
      "табыга": 9325,
      "##экэ": 9326,
      "араҥа": 9327,
      "бэйэтинэн": 9328,
      "соруд": 9329,
      "охсоору": 9330,
      "тарҕанар": 9331,
      "объ": 9332,
      "баалларын": 9333,
      "оҥорооччу": 9334,
      "чинчийээччи": 9335,
      "оҥостор": 9336,
      "көрдөбүлэ": 9337,
      "Байкал": 9338,
      "намтал": 9339,
      "төрдүс": 9340,
      "олоҥхо": 9341,
      "мунн": 9342,
      "кыахтаналлар": 9343,
      "хайысхалаах": 9344,
      "сииҥҥэ": 9345,
      "быыһыгар": 9346,
      "салалтатын": 9347,
      "Изд": 9348,
      "Камч": 9349,
      "Ийэтэ": 9350,
      "Кэриэйэ": 9351,
      "Норуот": 9352,
      "Ефремов": 9353,
      "##аа5ы": 9354,
      "бэтэрээнэ": 9355,
      "Краснояр": 9356,
      "62": 9357,
      "Порт": 9358,
      "Сок": 9359,
      "Суор": 9360,
      "Ум": 9361,
      "Хон": 9362,
      "Эһ": 9363,
      "бааһынай": 9364,
      "монг": 9365,
      "маһы": 9366,
      "сиг": 9367,
      "саай": 9368,
      "тем": 9369,
      "##уска": 9370,
      "##ниц": 9371,
      "##юн": 9372,
      "##вин": 9373,
      "##hэ": 9374,
      "##ri": 9375,
      "##анах": 9376,
      "##орда": 9377,
      "##стээн": 9378,
      "##иялыын": 9379,
      "##ерв": 9380,
      "арыылар": 9381,
      "этэллэрэ": 9382,
      "барара": 9383,
      "төрүөт": 9384,
      "үөскэтин": 9385,
      "кэлэ": 9386,
      "##циятыгар": 9387,
      "тутуллубута": 9388,
      "сыар": 9389,
      "омукка": 9390,
      "##ический": 9391,
      "көрдүүр": 9392,
      "ааттаабыттар": 9393,
      "куораттан": 9394,
      "биригээ": 9395,
      "1910": 9396,
      "140": 9397,
      "кубулуйд": 9398,
      "ыалга": 9399,
      "ууһун": 9400,
      "ыытыллыбыта": 9401,
      "туһаналлара": 9402,
      "130": 9403,
      "##ионов": 9404,
      "суолтал": 9405,
      "##үөрт": 9406,
      "сэриини": 9407,
      "эттикт": 9408,
      "төрдүттэн": 9409,
      "мэтээлинэн": 9410,
      "этэрбэс": 9411,
      "уордьана": 9412,
      "тохтопп": 9413,
      "куйаар": 9414,
      "Төрд": 9415,
      "бириэмийэтин": 9416,
      "эньиэргий": 9417,
      "виде": 9418,
      "бүттүүн": 9419,
      "псих": 9420,
      "Пекарскай": 9421,
      "600": 9422,
      "92": 9423,
      "Te": 9424,
      "Дар": 9425,
      "Ден": 9426,
      "Кум": 9427,
      "СА": 9428,
      "Сум": 9429,
      "эра": 9430,
      "##дий": 9431,
      "##ыҥн": 9432,
      "##ным": 9433,
      "##иэхт": 9434,
      "##батын": 9435,
      "##ьес": 9436,
      "##мөк": 9437,
      "##яд": 9438,
      "##ёт": 9439,
      "##эрэр": 9440,
      "##ылыыр": 9441,
      "##илизация": 9442,
      "##итинэн": 9443,
      "##унд": 9444,
      "##рак": 9445,
      "саныыллар": 9446,
      "##амят": 9447,
      "оҕотугар": 9448,
      "салаллан": 9449,
      "сайдарыгар": 9450,
      "куобах": 9451,
      "##өнөн": 9452,
      "хаманд": 9453,
      "холкуо": 9454,
      "##өтүк": 9455,
      "хамсыы": 9456,
      "##охторуна": 9457,
      "уолун": 9458,
      "бирич": 9459,
      "биригэдь": 9460,
      "көлүөнэҕэ": 9461,
      "атыттары": 9462,
      "ууран": 9463,
      "тыал": 9464,
      "көмөлөһө": 9465,
      "##уҥулар": 9466,
      "таһымнаах": 9467,
      "баҕата": 9468,
      "Айылҕаттан": 9469,
      "Иннокентьевна": 9470,
      "кыахтанарын": 9471,
      "таптал": 9472,
      "труд": 9473,
      "хабан": 9474,
      "хамсаныылары": 9475,
      "##ушкин": 9476,
      "ааспыта": 9477,
      "ырыаһыт": 9478,
      "поэта": 9479,
      "##ландия": 9480,
      "аччык": 9481,
      "контин": 9482,
      "Илиҥҥи": 9483,
      "чыыһыл": 9484,
      "Надеж": 9485,
      "оҕуруот": 9486,
      "77": 9487,
      "97": 9488,
      "cod": 9489,
      "пот": 9490,
      "сель": 9491,
      "суул": 9492,
      "тиэм": 9493,
      "чаб": 9494,
      "үүр": 9495,
      "##уф": 9496,
      "##чык": 9497,
      "##уом": 9498,
      "туга": 9499,
      "дьокут": 9500,
      "##еров": 9501,
      "##ерик": 9502,
      "##эринэ": 9503,
      "##уйбут": 9504,
      "##тартан": 9505,
      "##уста": 9506,
      "##эхтэн": 9507,
      "сайдарын": 9508,
      "саҥата": 9509,
      "Алтан": 9510,
      "иитиллэн": 9511,
      "км2": 9512,
      "хотон": 9513,
      "саҕалыыр": 9514,
      "комисс": 9515,
      "түргэт": 9516,
      "Өймөк": 9517,
      "Өрөспүүбүлүкэтэ": 9518,
      "мантан": 9519,
      "тириэрдэрэ": 9520,
      "советскай": 9521,
      "дакаастанар": 9522,
      "Дмитриев": 9523,
      "быhаар": 9524,
      "тренер": 9525,
      "историческай": 9526,
      "Төрүт": 9527,
      "##таҕай": 9528,
      "тыйаатыр": 9529,
      "Казахстан": 9530,
      "Елена": 9531,
      "95": 9532,
      "96": 9533,
      "ХНТ": 9534,
      "бот": 9535,
      "вод": 9536,
      "дек": 9537,
      "зап": 9538,
      "капит": 9539,
      "лин": 9540,
      "таах": 9541,
      "тоҕус": 9542,
      "уск": 9543,
      "ханан": 9544,
      "шт": 9545,
      "ына": 9546,
      "##биттэрин": 9547,
      "##ори": 9548,
      "билэллэрин": 9549,
      "##омир": 9550,
      "оҕустар": 9551,
      "туһаай": 9552,
      "аһыллыбыта": 9553,
      "##лаг": 9554,
      "##стата": 9555,
      "быһыыларыгар": 9556,
      "кыайбыт": 9557,
      "уларыйбакка": 9558,
      "оту": 9559,
      "инниттэн": 9560,
      "оонньуулар": 9561,
      "талыллыбыта": 9562,
      "Инстит": 9563,
      "тутарга": 9564,
      "борост": 9565,
      "сүүрбэ": 9566,
      "интэр": 9567,
      "Байҕ": 9568,
      "##быллаах": 9569,
      "хандь": 9570,
      "физкульт": 9571,
      "##ицип": 9572,
      "бэриллибит": 9573,
      "француз": 9574,
      "комитетын": 9575,
      "Финлянд": 9576,
      "Биирдэ": 9577,
      "Герас": 9578,
      "военкоматынан": 9579,
      "Кали": 9580,
      "Мур": 9581,
      "Нор": 9582,
      "вс": 9583,
[...]
